<pad>	0
</s>	0
<unk>	0
.	-3.07371
▁	-3.41396
,	-3.42954
-	-3.52925
▁—	-4.98834
а	-5.07543
▁(	-5.08828
н	-5.12149
ның	-5.1237
»	-5.25169
га	-5.26507
▁«	-5.27441
)	-5.28721
биле	-5.33997
и	-5.36774
ы	-5.39657
:	-5.50481
▁чылда	-5.59039
е	-5.605
▁турган	-5.6101
ниң	-5.63718
▁деп	-5.63856
да	-5.72522
й	-5.76907
▁база	-5.79143
▁турар	-5.80148
▁болгаш	-5.80644
п	-5.8819
г	-5.90652
▁в	-6.00141
м	-6.06208
ны	-6.07615
р	-6.08209
к	-6.11807
ла	-6.11887
ге	-6.13299
т	-6.17133
ка	-6.1898
даа	-6.21023
у	-6.23142
▁и	-6.24009
▁с	-6.24402
▁С	-6.25618
▁ол	-6.26277
с	-6.26984
де	-6.32329
"	-6.32609
▁А	-6.35557
▁–	-6.35856
;	-6.38918
я	-6.3989
ни	-6.40262
ң	-6.42176
л	-6.45319
ар	-6.47865
о	-6.50008
▁кижи	-6.51077
▁чылдың	-6.51863
▁"	-6.52743
▁чок	-6.53339
▁М	-6.54335
х	-6.55523
че	-6.60458
нуң	-6.60506
ин	-6.61471
▁В	-6.62281
дан	-6.63013
д	-6.66434
та	-6.66749
же	-6.67022
▁болур	-6.67627
▁алган	-6.68497
).	-6.70767
▁дугаар	-6.71603
▁бир	-6.71679
А	-6.7221
зы	-6.72492
ын	-6.73115
ч	-6.7339
▁кылдыр	-6.75278
ш	-6.76001
ов	-6.76498
▁Тыва	-6.77827
на	-6.78174
С	-6.78898
лар	-6.79504
ле	-6.81869
—	-6.82006
▁по	-6.85458
▁биле	-6.85906
▁дээш	-6.87357
▁на	-6.8783
▁Ол	-6.88177
▁К	-6.91304
К	-6.91392
в	-6.91838
▁ооң	-6.9298
«	-6.93455
▁чыл	-6.93826
▁болган	-6.9418
s	-6.97222
▁улуг	-6.97249
лыг	-7.00409
▁чедир	-7.01952
▁болза	-7.03232
▁-	-7.03305
те	-7.04082
ол	-7.04569
▁а	-7.04648
▁берген	-7.07904
го	-7.08609
▁И	-7.08992
б	-7.10297
|	-7.10938
▁соонда	-7.11395
),	-7.12053
ке	-7.1216
▁эвес	-7.12516
▁ийи	-7.13301
тар	-7.13495
ая	-7.14562
Тыва	-7.14991
ан	-7.15061
▁чораан	-7.15806
ю	-7.16405
В	-7.17401
▁хөй	-7.17439
▁эртем	-7.17492
▁бар	-7.17841
»,	-7.18407
з	-7.19535
a	-7.19588
▁азы	-7.20167
не	-7.21419
▁Н	-7.21688
▁ажыл	-7.22246
▁ажылдап	-7.23431
Д	-7.2348
▁чылдарда	-7.2416
▁төрүттүнген	-7.24188
ден	-7.24401
ь	-7.26085
▁Кызыл	-7.26789
▁чылдан	-7.2728
тер	-7.27621
Б	-7.28455
▁үеде	-7.28557
Т	-7.30165
ой	-7.30556
▁келген	-7.30848
дыр	-7.31538
О	-7.32329
ер	-7.34243
ли	-7.34936
▁бээр	-7.35113
ти	-7.35244
/	-7.35253
ты	-7.35299
▁алыр	-7.36276
▁Республиканың	-7.37126
▁к	-7.38159
ынга	-7.38369
▁тыва	-7.38502
▁чүс	-7.38848
▁//	-7.39631
▁күрүне	-7.40237
▁2	-7.40267
оол	-7.40364
ом	-7.40907
ди	-7.4152
ия	-7.41743
▁өске	-7.41777
▁Г	-7.41812
▁болуп	-7.42196
лер	-7.42258
ының	-7.42745
ва	-7.42986
▁дээр	-7.44104
дың	-7.44686
нга	-7.44863
▁эгелээн	-7.46176
▁О	-7.46322
М	-7.46364
иниң	-7.47009
▁Д	-7.47879
тиң	-7.4805
▁Т	-7.4885
И	-7.49887
дар	-7.50041
нар	-7.50826
▁аттыг	-7.51458
▁о	-7.51682
за	-7.52686
тың	-7.52825
▁дугайында	-7.53824
ки	-7.54007
▁апарган	-7.5459
▁/	-7.55529
▁кол	-7.55532
▁эң	-7.56011
бир	-7.56572
лиг	-7.56945
▁3	-7.57101
?	-7.57303
▁Б	-7.57474
ма	-7.57717
Демдеглелдер	-7.58917
▁эки	-7.59553
ж	-7.60563
Г	-7.60829
▁бо	-7.60853
чи	-7.60898
▁П	-7.61537
ф	-7.62075
П	-7.62108
тиг	-7.62417
зи	-7.62696
ий	-7.62719
ги	-7.63592
тан	-7.64652
y	-7.65641
▁ч	-7.6592
▁чүве	-7.66073
▁Ооң	-7.66421
▁өг	-7.66506
ды	-7.66722
▁оон	-7.67112
▁18	-7.68193
2	-7.68198
▁Россия	-7.68592
▁мен	-7.68642
ра	-7.68655
e	-7.69073
▁чер	-7.69867
▁дыл	-7.69962
▁No	-7.70002
▁Тываның	-7.70133
Х	-7.70387
▁ону	-7.70973
ну	-7.71564
У	-7.71684
▁1	-7.71703
Ш	-7.72443
▁ады	-7.72559
инге	-7.72753
▁катап	-7.72786
дир	-7.72959
но	-7.73183
▁дооскан	-7.73575
лары	-7.73597
Ч	-7.7365
он	-7.73705
ский	-7.74136
туң	-7.74462
зын	-7.75146
э	-7.75795
ту	-7.75987
ей	-7.76631
бо	-7.76682
▁дээрге	-7.77244
Шөлүглер	-7.77269
лап	-7.77562
▁каан	-7.77714
t	-7.78053
ова	-7.78111
▁оглу	-7.78221
нер	-7.79087
!	-7.79711
▁чурттап	-7.79778
Намдары	-7.79849
ская	-7.80235
ского	-7.80484
ри	-7.81301
▁совет	-7.81542
▁Л	-7.81739
ээ	-7.82173
▁тур	-7.82439
ло	-7.82596
Н	-7.82865
▁чоруур	-7.83009
▁4	-7.83171
▁Ч	-7.83252
ев	-7.83551
▁I	-7.84231
ба	-7.8428
▁бодунуң	-7.84362
i	-7.84564
▁У	-7.85887
▁кады	-7.85984
▁за	-7.8622
▁Улуг	-7.86403
са	-7.86731
▁алдарлыг	-7.86875
то	-7.87138
▁улус	-7.8715
▁тура	-7.87355
▁талазы	-7.87719
▁кижилер	-7.87838
ир	-7.88454
▁чаңгыс	-7.88465
▁үш	-7.885
ск	-7.88666
▁ССРЭ	-7.88728
Э	-7.89476
ор	-7.89651
Хем	-7.89671
▁д	-7.89944
▁т	-7.90073
n	-7.90125
▁года	-7.90227
▁Ф	-7.91424
Р	-7.91612
▁км	-7.91709
ак	-7.91812
ос	-7.91836
ст	-7.91985
▁суур	-7.92056
k	-7.92093
чы	-7.92097
лаар	-7.92102
тен	-7.92264
нүң	-7.92575
▁чаа	-7.92981
им	-7.93617
3	-7.9416
▁кижиниң	-7.94256
▁Р	-7.94438
нче	-7.94618
ажыл	-7.95953
ун	-7.96625
▁кирген	-7.96629
▁бооп	-7.96693
▁России	-7.96761
ко	-7.96924
дыг	-7.97174
▁от	-7.97396
▁кылып	-7.97441
ской	-7.97618
▁чүүл	-7.98081
ган	-7.982
▁ажылдакчызы	-7.98316
ен	-7.98378
ээн	-7.98744
▁үезинде	-7.98898
дер	-7.98949
ет	-7.98983
ль	-7.99106
ре	-7.99421
o	-7.9949
ый	-7.99874
нге	-7.99915
ыр	-7.99965
",	-8.00084
'	-8.00216
ү	-8.00325
ып	-8.0034
l	-8.00512
ал	-8.00702
ай	-8.00796
▁кылган	-8.01682
▁до	-8.01898
Дөс	-8.01911
▁ат	-8.02071
r	-8.02565
▁алгаш	-8.02587
Е	-8.02848
▁Х	-8.03373
▁со	-8.03424
аш	-8.03853
▁Бо	-8.04159
▁үнген	-8.04899
▁5	-8.05009
▁у	-8.05459
1	-8.05907
жи	-8.06075
ча	-8.06084
▁Дээди	-8.06384
кан	-8.06415
▁куд	-8.06639
ында	-8.06952
▁не	-8.07274
мен	-8.07492
▁кылыр	-8.08631
▁Э	-8.09047
ем	-8.09174
▁сөс	-8.09573
▁көдээ	-8.10348
▁Совет	-8.10414
▁аразында	-8.1088
ист	-8.10927
тыг	-8.10934
▁кежигүнү	-8.11156
ный	-8.1198
▁аңаа	-8.12304
▁тургаш	-8.12315
▁иштинде	-8.12582
ц	-8.12645
ии	-8.12803
▁орус	-8.12893
▁чедип	-8.1311
▁10	-8.13284
▁при	-8.13286
▁чүгле	-8.13503
ович	-8.13582
унуң	-8.13702
ө	-8.13942
]	-8.14264
▁ап	-8.14463
ду	-8.14489
жа	-8.14686
▁чери	-8.14909
▁уран	-8.15883
ым	-8.1632
ажылды	-8.16972
▁чоннуң	-8.17067
▁Россияның	-8.17077
▁албан	-8.17105
ро	-8.17147
ого	-8.17393
аль	-8.17632
▁кирип	-8.17796
гу	-8.17798
▁өөренип	-8.18341
▁хоорай	-8.1842
▁тускай	-8.18805
▁6	-8.18833
▁э	-8.19005
5	-8.1951
ам	-8.19577
во	-8.19625
▁[	-8.19964
ок	-8.20155
▁ышкаш	-8.20823
ары	-8.21048
▁аңгы	-8.21355
зының	-8.21365
▁черге	-8.21482
▁(«	-8.2149
▁делегей	-8.21837
▁удур	-8.21918
▁Е	-8.22218
▁“	-8.22268
4	-8.22849
ат	-8.23172
▁чылга	-8.23225
A	-8.23226
▁бижээн	-8.23394
▁олар	-8.23658
Л	-8.23735
▁A	-8.23857
▁хире	-8.23864
си	-8.24034
тап	-8.24234
▁бичии	-8.2444
ул	-8.24675
▁ада	-8.24794
▁ISBN	-8.24874
зин	-8.24886
▁Күш	-8.24996
ина	-8.25015
d	-8.2521
ил	-8.2552
ит	-8.25561
лы	-8.26036
▁хоорайга	-8.26114
ная	-8.2646
▁кара	-8.26531
▁()	-8.26678
ха	-8.26689
p	-8.267
▁Ю	-8.26712
al	-8.26866
▁башкы	-8.26973
▁дыка	-8.27194
ных	-8.27276
▁2003	-8.27311
ру	-8.2735
▁бүгү	-8.27777
нын	-8.28066
нда	-8.28214
▁бе	-8.28666
▁ажыглап	-8.28711
▁Москва	-8.28746
▁из	-8.28806
▁күш	-8.28842
▁х	-8.2931
(	-8.29515
ной	-8.29659
▁эр	-8.29813
▁Ш	-8.29967
▁дег	-8.30051
ындан	-8.30238
▁бис	-8.30547
Ф	-8.30969
ные	-8.31107
▁ном	-8.31259
u	-8.31676
▁бирээзи	-8.3174
▁дылдың	-8.31792
▁ордени	-8.31799
▁университединиң	-8.32145
ур	-8.32321
);	-8.32385
ман	-8.32686
en	-8.33053
re	-8.33056
▁Новосибирск	-8.33193
чу	-8.33248
тыр	-8.33323
▁Я	-8.33327
▁аңгыда	-8.33371
c	-8.3351
▁келир	-8.33589
ел	-8.3359
ми	-8.33604
h	-8.33661
▁of	-8.33967
b	-8.33978
▁чемпиону	-8.34213
▁май	-8.34278
от	-8.34405
лу	-8.35139
ларның	-8.35218
ныг	-8.35295
▁он	-8.35383
до	-8.35779
́	-8.35795
▁ак	-8.36299
За	-8.36954
▁март	-8.37015
m	-8.37048
ларны	-8.37079
ков	-8.37242
▁8	-8.37344
▁S	-8.37447
туг	-8.37511
▁чыынды	-8.3755
ис	-8.37576
тур	-8.37742
­	-8.37947
=	-8.37969
▁м	-8.38101
▁херээжен	-8.38423
▁эрткен	-8.3854
▁мал	-8.38554
”	-8.38563
▁7	-8.39163
▁б	-8.39242
ного	-8.39332
▁каар	-8.39394
▁район	-8.39398
▁Бир	-8.40005
ие	-8.40031
▁шериг	-8.40336
▁эдилекчизи	-8.40414
ек	-8.40656
Дөзү	-8.40711
▁театр	-8.41045
g	-8.41115
ru	-8.41338
6	-8.41443
S	-8.41783
C	-8.41841
леп	-8.41868
▁болзун	-8.42946
▁На	-8.42954
▁тургустунган	-8.42999
▁Оон	-8.43001
▁үе	-8.43318
ля	-8.43612
▁хаан	-8.43786
▁кандыг	-8.4404
▁үндүрер	-8.44096
10	-8.44558
▁боор	-8.44567
18	-8.44892
ве	-8.4494
лга	-8.45034
аңгы	-8.4523
▁муң	-8.45287
▁З	-8.45761
▁АССР	-8.45776
▁атты	-8.45936
▁ай	-8.45998
z	-8.46175
▁17	-8.46231
▁чугаа	-8.46341
▁хүн	-8.46741
азы	-8.46993
ах	-8.47012
агый	-8.47317
▁оларның	-8.47417
ви	-8.47539
кым	-8.47549
по	-8.47649
▁дөрт	-8.47735
▁ойнап	-8.47807
▁амгы	-8.48055
▁беш	-8.48129
▁уруг	-8.48353
▁декабрь	-8.48372
▁улустуң	-8.48516
му	-8.48586
би	-8.48634
▁өөредилге	-8.48695
▁октябрь	-8.48895
ar	-8.49086
Тываның	-8.49228
се	-8.49371
ку	-8.49576
▁ажыг	-8.49661
зынга	-8.49807
▁Кара	-8.49915
er	-8.50239
▁апрель	-8.50324
8	-8.50355
▁2012	-8.5039
Кызыл	-8.50464
▁бедик	-8.50485
ме	-8.50611
▁12	-8.50958
▁август	-8.51087
D	-8.51233
ё	-8.51306
▁шын	-8.51482
▁январь	-8.51554
▁июнь	-8.51577
▁чон	-8.51593
▁культура	-8.51784
ныӊ	-8.51813
an	-8.5197
бы	-8.52092
ткан	-8.52122
▁9	-8.52508
▁дээн	-8.52541
ССРЭ	-8.52619
▁ажылы	-8.52686
сти	-8.52881
center	-8.53042
гы	-8.53082
со	-8.53109
кы	-8.53243
ӊ	-8.53442
▁ш	-8.53479
▁чорук	-8.53489
ап	-8.53632
▁ча	-8.53679
▁хар	-8.53716
лээр	-8.53718
▁ындыг	-8.53823
▁15	-8.53941
нин	-8.54066
▁ажы	-8.54106
▁соңгу	-8.54239
▁20	-8.54402
in	-8.54497
вер	-8.55231
▁аразынга	-8.56248
Бо	-8.56344
▁ажылдаан	-8.56507
од	-8.56696
▁боду	-8.56721
▁херек	-8.56926
аар	-8.57012
тары	-8.5771
▁16	-8.58063
▁Том	-8.58205
і	-8.58567
тери	-8.58739
ум	-8.5892
▁арга	-8.59135
▁июль	-8.59273
ыл	-8.59275
▁баштайгы	-8.59628
▁харлыг	-8.59728
▁тывыскан	-8.59882
▁эрге	-8.59968
▁чылдар	-8.60056
бүрү	-8.60131
лен	-8.60285
▁саны	-8.60468
▁адын	-8.60566
▁салыр	-8.60735
▁киир	-8.60756
▁ынчалза	-8.60838
овна	-8.60914
▁янзы	-8.61081
лаан	-8.61322
▁школа	-8.61702
▁чем	-8.61734
▁суг	-8.62036
▁бирги	-8.62099
ra	-8.62182
▁кыс	-8.62228
ген	-8.62424
таар	-8.62582
▁медаль	-8.62708
▁көр	-8.62844
▁чеди	-8.6285
ры	-8.6305
па	-8.63215
▁төвү	-8.63283
v	-8.63323
▁билдингир	-8.63578
▁тудуп	-8.6367
▁баар	-8.63679
ип	-8.63684
▁кино	-8.63787
ъ	-8.64145
▁ноябрь	-8.64404
Ол	-8.64457
▁ам	-8.64618
Наука	-8.64762
▁чогаалчы	-8.64818
▁спорт	-8.64852
▁Европа	-8.64874
B	-8.64931
ель	-8.64981
▁M	-8.65002
▁үнүп	-8.65411
▁кончуг	-8.65488
▁Ка	-8.65625
f	-8.65714
ран	-8.66054
▁апаар	-8.66113
ус	-8.66139
▁хамааржыр	-8.66142
▁Ба	-8.66326
▁Чөөн	-8.665
лин	-8.66504
▁кезек	-8.66633
Хөл	-8.66773
үн	-8.66853
▁аът	-8.6692
▁Ку	-8.66953
▁чергелиг	-8.67035
▁адаан	-8.67317
▁Социалисти	-8.67317
ут	-8.67582
▁даргазы	-8.67647
ши	-8.67755
Шаңналдары	-8.67773
изм	-8.6784
дур	-8.67909
▁кижини	-8.67921
▁сан	-8.68016
▁тургускан	-8.68057
▁хевирлиг	-8.68071
▁бижип	-8.68163
▁2010	-8.68497
▁сентябрь	-8.68566
▁эртеминиң	-8.68585
лери	-8.68674
бе	-8.6871
▁шаңнаткан	-8.68871
▁билир	-8.69112
Ү	-8.69259
ндан	-8.69267
▁Күрүне	-8.69293
ое	-8.69331
ик	-8.69344
▁төөгү	-8.6968
тир	-8.69689
▁кожуун	-8.69813
▁2008	-8.70261
▁национал	-8.70424
▁үндүрген	-8.7056
–	-8.70592
▁аайы	-8.7062
кү	-8.70675
▁алды	-8.70788
ян	-8.70996
ı	-8.71102
▁көөр	-8.71236
on	-8.71434
▁чогаал	-8.71693
▁СССР	-8.7172
▁түрк	-8.72015
▁про	-8.72156
▁эртемден	-8.72238
▁Республика	-8.72335
▁Маадыры	-8.72351
▁дылда	-8.72465
▁2000	-8.7262
▁г	-8.72755
▁республика	-8.72922
▁сөстүү	-8.73153
▁шупту	-8.73215
le	-8.73327
тор	-8.73687
дү	-8.7372
M	-8.7378
▁бот	-8.73782
9	-8.73913
▁берге	-8.74064
align	-8.74269
▁ар	-8.74289
үр	-8.74539
мо	-8.74611
▁14	-8.74763
▁100	-8.74775
ur	-8.7485
ном	-8.7488
▁ажылын	-8.75019
▁Ленин	-8.75027
▁сөстер	-8.75141
▁Ар	-8.75241
ста	-8.75257
пе	-8.75585
гар	-8.75609
ые	-8.75619
ева	-8.75678
▁адаар	-8.76058
Россия	-8.76084
▁Тувы	-8.76099
бу	-8.76262
Чемпионат	-8.76384
▁аас	-8.76385
▁мо	-8.76472
▁киржип	-8.76635
▁февраль	-8.76941
▁the	-8.76949
зу	-8.77031
из	-8.77045
З	-8.77174
луг	-8.77228
үш	-8.77252
▁алдын	-8.77276
▁область	-8.77343
▁хүлээп	-8.77527
ци	-8.77532
▁P	-8.77615
20	-8.77711
зе	-8.77812
▁артизи	-8.77844
2.	-8.7798
их	-8.77983
▁хөгжүм	-8.78085
▁D	-8.78217
▁үн	-8.78298
▁солун	-8.78766
E	-8.78873
▁ужурлуг	-8.79062
Күш	-8.79092
▁C	-8.79257
▁11	-8.79339
Й	-8.7955
▁Ц	-8.79605
ное	-8.79756
Я	-8.79958
▁чадазы	-8.80282
▁киирген	-8.80312
▁Ада	-8.80371
ология	-8.80534
▁хүндүлүг	-8.80607
▁институдунуң	-8.80648
ларга	-8.80728
or	-8.80738
ник	-8.80833
▁Совединиң	-8.8098
▁аар	-8.81087
▁Делегей	-8.81098
▁күрүнениң	-8.81123
ü	-8.81275
15	-8.81361
▁анаа	-8.814
сы	-8.81528
▁автору	-8.81747
▁үениң	-8.81773
изи	-8.81801
▁силер	-8.81913
▁2016	-8.81922
▁Республики	-8.82165
es	-8.82474
чаа	-8.82564
▁дээди	-8.82702
▁барган	-8.82765
▁Пер	-8.82814
▁дөмей	-8.82847
▁кожууннуң	-8.82952
w	-8.83004
▁Ко	-8.8331
▁ишти	-8.83397
I	-8.83575
▁ортумак	-8.8371
▁эгелеп	-8.83777
▁РСФСР	-8.84023
▁кожууну	-8.84105
▁ниити	-8.84115
ив	-8.84135
кара	-8.84165
▁командазы	-8.84294
▁2006	-8.8434
▁ойнаан	-8.84479
▁хевири	-8.84495
лю	-8.8469
[	-8.84732
хөй	-8.84774
стер	-8.8487
кс	-8.84946
▁30	-8.84981
▁профессор	-8.85054
▁(18	-8.85076
12	-8.8527
дып	-8.85363
▁Ли	-8.85422
ээр	-8.85616
▁сайте	-8.85906
ся	-8.86027
▁моол	-8.86103
▁За	-8.86158
ец	-8.86379
▁кезээ	-8.86566
▁үнер	-8.8674
T	-8.86758
оль	-8.86761
7	-8.86791
sp	-8.869
ня	-8.86915
▁төп	-8.87003
евич	-8.87273
▁билип	-8.87315
▁литература	-8.87323
▁чону	-8.87659
ниити	-8.87687
▁чүүлдер	-8.87697
▁2002	-8.87881
▁уруглар	-8.87905
На	-8.88
00	-8.88118
▁13	-8.88159
▁хан	-8.88225
▁дооскаш	-8.88692
▁тыптып	-8.88696
инде	-8.88797
▁году	-8.8889
ооң	-8.89017
лерниң	-8.89035
сто	-8.8905
↑	-8.89185
▁ёзугаар	-8.89369
Дөзүк	-8.89381
Кара	-8.89401
мер	-8.8942
▁2014	-8.89444
▁эмчи	-8.89456
▁E	-8.89461
ша	-8.89648
▁ажык	-8.89758
▁2015	-8.89771
▁ред	-8.90025
▁медальдар	-8.90083
▁адап	-8.90086
▁улузу	-8.90087
ада	-8.90156
ткен	-8.90202
ийи	-8.90232
ri	-8.90278
▁келгеш	-8.90399
30	-8.90407
▁кирер	-8.90505
▁ажыглаар	-8.90508
▁мурнунда	-8.90567
ых	-8.90635
для	-8.90689
инден	-8.9091
теп	-8.9107
▁2011	-8.91195
кен	-8.91218
16	-8.91269
▁год	-8.91467
▁оларны	-8.91586
вес	-8.91866
▁:	-8.91885
▁хоорайның	-8.92015
▁сумузу	-8.92066
эр	-8.92089
▁үези	-8.92095
аан	-8.92097
’	-8.92123
▁ре	-8.92206
▁каш	-8.92307
оз	-8.92353
ез	-8.92362
нү	-8.92396
бүле	-8.92522
▁колхоз	-8.92977
Тайга	-8.93044
▁шажын	-8.93068
алдар	-8.93128
at	-8.93145
▁Бай	-8.93282
▁хол	-8.93347
нов	-8.93398
▁уруу	-8.93448
ья	-8.93553
▁чугаалаар	-8.93724
өске	-8.93734
вы	-8.93797
уп	-8.93821
▁чыдар	-8.93959
O	-8.9405
оп	-8.94057
тарның	-8.94075
кин	-8.9421
▁K	-8.94339
▁2013	-8.94497
▁россий	-8.94919
▁Казахстан	-8.95055
нның	-8.95287
▁аныяк	-8.95291
еди	-8.95405
жы	-8.95467
▁Ак	-8.95471
лан	-8.95486
▁ынчангаш	-8.95595
ларын	-8.95667
▁чугула	-8.95693
▁турда	-8.95983
▁сес	-8.96148
▁Александр	-8.96187
17	-8.96237
▁п	-8.96362
▁Ынчангаш	-8.96367
▁ажылдары	-8.96486
вар	-8.96509
ство	-8.96548
K	-8.96586
▁эге	-8.96742
диң	-8.96753
ция	-8.96821
▁Санкт	-8.96878
ук	-8.97086
▁T	-8.97368
▁доктору	-8.97407
▁дайыны	-8.97595
un	-8.9781
Улуг	-8.98021
ами	-8.98049
▁G	-8.98062
кова	-8.98144
0	-8.98153
▁Олар	-8.98156
стр	-8.98231
▁кижиге	-8.98239
▁B	-8.98278
▁хем	-8.98296
▁Арат	-8.98362
нден	-8.98391
ыш	-8.98405
▁мурнуу	-8.98539
стан	-8.98558
▁бодун	-8.98562
▁22	-8.98566
нде	-8.9891
иктиг	-8.98989
1.	-8.99168
▁педагогика	-8.99208
▁об	-8.99225
Ка	-8.99275
▁дараазында	-8.99279
▁элээн	-8.99286
▁черлер	-8.99295
тин	-8.99367
▁төрээн	-8.9937
▁как	-8.99401
▁шак	-8.99406
▁хой	-8.99648
енко	-8.99775
▁эрги	-8.99979
▁25	-9.00104
▁Чарлыы	-9.00167
сп	-9.00272
чер	-9.00386
▁По	-9.00441
▁берип	-9.00484
▁19	-9.00573
19	-9.0072
▁лет	-9.00725
▁II	-9.00901
▁ф	-9.00988
▁2018	-9.00994
li	-9.01002
▁H	-9.01093
▁2007	-9.01111
▁2009	-9.01234
Ма	-9.01262
гер	-9.01319
алды	-9.01404
тай	-9.01429
▁акша	-9.01582
▁орук	-9.01591
http	-9.01636
ларының	-9.01641
мак	-9.01851
it	-9.01939
лерни	-9.0219
://	-9.02233
▁под	-9.02277
▁ди	-9.02315
▁кыдат	-9.02368
▁чор	-9.02487
ское	-9.0254
▁Чемпионады	-9.02795
▁хостуг	-9.02829
»)	-9.02971
da	-9.02973
▁кызыл	-9.03037
бүлеге	-9.03037
бодунуң	-9.03117
иш	-9.03141
im	-9.03308
el	-9.03417
▁башкызы	-9.03468
бүлези	-9.03561
гаш	-9.03568
лет	-9.03587
▁алырга	-9.03616
▁сагыш	-9.0368
ком	-9.03765
▁баш	-9.03788
Хемчик	-9.03836
▁доозукчулары	-9.03966
лге	-9.04036
▁21	-9.04054
▁R	-9.04163
▁дуза	-9.04248
▁тайылбыр	-9.04414
унга	-9.04441
Бир	-9.04455
▁чаш	-9.04487
▁тараа	-9.04517
▁ыяш	-9.04656
словарь	-9.04688
•	-9.04755
R	-9.04766
▁Куулар	-9.04805
бас	-9.04877
▁төрел	-9.04982
▁Ынчалза	-9.05214
чем	-9.05233
▁дакпыр	-9.05238
▁оралакчызы	-9.05265
улуг	-9.0537
H	-9.05372
▁даштыкы	-9.0542
▁сен	-9.05581
ѳ	-9.05676
ing	-9.05701
▁Ча	-9.06072
▁турганнар	-9.06413
геш	-9.06419
▁кырында	-9.06591
▁Владимир	-9.0665
Литература	-9.06756
Чогаал	-9.06827
дин	-9.06873
Даг	-9.06877
▁Ону	-9.07087
▁эт	-9.0709
Ю	-9.07151
ше	-9.07195
▁Чер	-9.07198
ыры	-9.07201
хан	-9.0736
▁эм	-9.07435
Ы	-9.07697
ниӊ	-9.07713
▁тос	-9.07747
▁аймак	-9.0786
▁До	-9.07864
▁1-	-9.07972
▁көрүп	-9.07991
▁кырынга	-9.08035
өг	-9.08172
▁ойнаар	-9.08248
▁амытаннар	-9.08427
арга	-9.08485
мат	-9.08489
чал	-9.08493
Лама	-9.08544
или	-9.0878
ских	-9.08877
дип	-9.08928
▁музей	-9.08955
▁обращения	-9.09216
ә	-9.0923
диг	-9.09434
▁школазын	-9.09545
▁мага	-9.09551
ta	-9.09572
▁киришкен	-9.09627
ma	-9.09652
▁Дата	-9.09718
▁барып	-9.0976
▁ал	-9.09797
et	-9.098
▁Федерациязының	-9.10057
▁Москваның	-9.10081
Россияның	-9.10129
▁тывылган	-9.10175
▁↑	-9.10267
▁Ма	-9.10343
▁болганда	-9.1035
▁чоруп	-9.10397
каш	-9.10398
лов	-9.10635
▁черни	-9.1065
▁аттары	-9.10668
▁эгелээр	-9.10681
▁Славы	-9.10881
Ча	-9.10884
▁санап	-9.10929
▁бажың	-9.10942
ес	-9.11164
na	-9.112
рав	-9.11265
▁Су	-9.11519
▁черниң	-9.11688
▁тудар	-9.11762
лик	-9.11763
▁бижик	-9.11791
il	-9.11888
бажың	-9.11963
▁2019	-9.12042
▁дайынчы	-9.12102
▁болбас	-9.12162
▁суурга	-9.12188
▁F	-9.12244
үү	-9.12422
▁авазы	-9.12489
▁Мария	-9.12682
▁херектер	-9.12733
me	-9.13113
дары	-9.13163
▁Трудово	-9.13203
даар	-9.13239
ce	-9.13242
▁была	-9.13262
▁and	-9.13395
▁удуртукчузу	-9.13445
▁2017	-9.13445
▁узадыр	-9.13454
Ж	-9.13468
nb	-9.13522
ска	-9.13557
▁кээр	-9.13665
is	-9.13684
▁бөлүк	-9.13773
ас	-9.13879
ую	-9.1389
ят	-9.13907
ынче	-9.13907
▁Бу	-9.14159
▁улусчу	-9.14202
По	-9.14287
▁арыг	-9.14294
▁талазында	-9.14328
рак	-9.14382
la	-9.14411
▁ө	-9.14422
▁аарыг	-9.14426
▁ба	-9.14473
▁чечен	-9.14566
ье	-9.14585
▁кор	-9.14833
▁V	-9.14835
▁Республиказы	-9.14856
зында	-9.14935
▁Аңаа	-9.14941
G	-9.14957
▁ко	-9.14967
▁1997	-9.1498
▁чөөн	-9.14991
▁1993	-9.15095
▁ынак	-9.15195
te	-9.15267
▁харлыында	-9.1549
▁Амгы	-9.1555
суг	-9.15705
хо	-9.16002
▁Молот	-9.16065
ские	-9.1607
14	-9.1615
▁арткан	-9.16158
бес	-9.16171
▁in	-9.16237
Петербург	-9.16323
▁кажан	-9.16519
▁29	-9.16782
▁тургузуп	-9.16957
нары	-9.16995
▁салып	-9.1703
ş	-9.17044
су	-9.17061
▁узун	-9.17086
▁ийиги	-9.17121
▁дайын	-9.17156
Серп	-9.17164
үл	-9.17286
▁фильм	-9.17483
▁Ла	-9.17593
▁ному	-9.17621
ык	-9.17631
ңар	-9.17655
ың	-9.17705
дал	-9.17723
ири	-9.17729
us	-9.17734
▁Чаа	-9.17814
▁адаттынар	-9.17866
олог	-9.17913
▁башкылары	-9.18103
▁кон	-9.18137
ад	-9.18394
%	-9.18464
түң	-9.18465
▁алыры	-9.18546
тарны	-9.18569
▁000	-9.18649
▁шы	-9.18793
кар	-9.18891
лай	-9.18931
3.	-9.1898
▁агаар	-9.19019
алдыг	-9.19173
▁чылдыӊ	-9.19223
▁Моңгуш	-9.19345
▁Эвилели	-9.19359
▁демир	-9.19528
▁2004	-9.19588
▁Сан	-9.19596
▁бурунгу	-9.19669
▁угаан	-9.19764
▁дириг	-9.19939
▁26	-9.19957
тү	-9.2004
үп	-9.20107
ro	-9.20169
▁чанында	-9.20178
уб	-9.20188
▁Эр	-9.20325
Ада	-9.2036
▁демдээ	-9.20364
дай	-9.20445
F	-9.20548
аны	-9.20669
▁чоок	-9.20938
st	-9.20941
▁эгезинде	-9.20948
γ	-9.21066
▁1995	-9.21101
▁Со	-9.2116
▁аян	-9.21228
▁24	-9.21245
▁чүге	-9.21287
▁немец	-9.21301
овой	-9.21344
▁27	-9.21351
▁Га	-9.2147
▁кижилери	-9.21563
▁бажы	-9.21677
шу	-9.21732
ези	-9.21779
ёр	-9.21784
▁сылдыстар	-9.21794
дери	-9.21822
бар	-9.21908
Делегей	-9.21962
▁Маадырлары	-9.22048
▁кызыгаар	-9.22064
ne	-9.22089
▁2005	-9.22099
▁ачазы	-9.22172
▁W	-9.22221
▁тывалар	-9.22268
▁ыры	-9.22304
быр	-9.22359
зер	-9.2243
▁чамдык	-9.22478
▁чүк	-9.22503
▁Президиум	-9.22602
▁Монгуш	-9.22639
▁та	-9.22659
05	-9.22846
▁ТАР	-9.22926
тель	-9.23039
ван	-9.23056
дж	-9.23062
▁хоойлу	-9.23079
хи	-9.23108
ения	-9.23155
об	-9.23197
Спорт	-9.23237
ады	-9.23278
▁киирер	-9.2337
ич	-9.23376
▁турары	-9.23575
ров	-9.23577
40	-9.23628
англ	-9.23638
j	-9.23696
ed	-9.23738
▁кырган	-9.23782
▁сарыг	-9.23785
▁1992	-9.23826
▁2001	-9.23907
▁директору	-9.24007
▁бол	-9.24008
▁эргелекчизи	-9.24015
жу	-9.24072
маа	-9.24074
▁салым	-9.24158
хар	-9.2417
▁Ай	-9.24191
иль	-9.24226
50	-9.24296
▁чурт	-9.24364
ид	-9.24406
N	-9.24704
▁айның	-9.24829
▁безин	-9.2486
▁хамаарыштыр	-9.24902
▁словарь	-9.24951
Кол	-9.25035
чурттуң	-9.25045
тра	-9.253
▁эрте	-9.25307
▁чараш	-9.25325
▁класс	-9.25337
▁дургузунда	-9.25361
▁Оларның	-9.25366
4.	-9.25495
▁чемпионады	-9.25533
▁бай	-9.25604
▁бойдус	-9.25645
аз	-9.25655
ğ	-9.25657
▁Ж	-9.25669
▁команда	-9.25676
фе	-9.25779
рат	-9.25827
▁баштай	-9.25835
▁1998	-9.25861
▁области	-9.2594
▁чокка	-9.26043
ol	-9.26145
▁төр	-9.26157
иң	-9.26226
▁байдал	-9.26264
▁үргүлчү	-9.26317
бак	-9.26374
▁университет	-9.26453
▁энциклопедия	-9.2647
ния	-9.26526
ниг	-9.26537
Эртем	-9.26674
▁Далай	-9.26692
▁1996	-9.26825
▁кг	-9.26855
▁башкылап	-9.26939
▁дизе	-9.2696
di	-9.26978
▁АКШ	-9.27
▁Та	-9.27021
▁то	-9.27084
▁кезии	-9.27166
баш	-9.27185
P	-9.2721
▁өө	-9.27253
▁1990	-9.27254
▁край	-9.27256
▁биче	-9.27356
▁Ан	-9.2744
▁көргүзер	-9.27506
▁артист	-9.27589
2010	-9.27652
▁ханы	-9.27674
▁төөгүзү	-9.27826
орук	-9.27854
▁тып	-9.27909
▁бижии	-9.27977
шка	-9.28003
▁2-	-9.28009
▁ойнакчылары	-9.28064
▁чорупкан	-9.28216
чү	-9.28306
▁чартык	-9.28328
▁тургузар	-9.28329
▁Уфа	-9.28399
▁кайы	-9.28438
даг	-9.28479
▁Ре	-9.28553
▁сөөлгү	-9.28579
тов	-9.286
Ооң	-9.28621
нарның	-9.28637
▁ээзи	-9.28651
ть	-9.28734
▁шүлүкчү	-9.28803
Допчу	-9.28826
ызы	-9.28986
иг	-9.29102
алы	-9.29122
▁эвилелиниң	-9.29408
чок	-9.29417
▁автор	-9.29459
эн	-9.29564
▁бүрүзү	-9.2962
ура	-9.297
▁шаңналының	-9.297
▁Соңгу	-9.29738
11	-9.29851
▁хуу	-9.29888
терниң	-9.29898
▁бүдүмелдер	-9.29913
▁боттары	-9.29948
▁яамызының	-9.30044
▁кижилерниң	-9.30091
▁колдуунда	-9.30175
▁XX	-9.30178
вас	-9.30222
▁Москвага	-9.30264
▁Ындыг	-9.303
▁мастери	-9.30332
23	-9.30351
тон	-9.30524
пер	-9.30533
▁хүрешке	-9.3055
▁Азия	-9.30613
уль	-9.30626
lar	-9.307
▁оран	-9.3071
▁үндезин	-9.30723
2014	-9.30729
▁чурукчу	-9.30783
si	-9.30851
▁көргүскен	-9.30855
эм	-9.30884
ler	-9.30926
▁Ор	-9.30965
▁(;	-9.30993
▁тургузуу	-9.31023
херек	-9.31111
лась	-9.31138
▁утказы	-9.31148
ияның	-9.31397
▁То	-9.31406
▁Кол	-9.31444
▁багай	-9.31458
▁1999	-9.31627
▁онзагай	-9.31761
▁Барыын	-9.3178
27	-9.31876
сен	-9.31946
▁физика	-9.31966
▁дылдар	-9.31973
уз	-9.32068
▁ынчан	-9.32075
▁эвээш	-9.3209
▁аажок	-9.32105
вин	-9.32225
қ	-9.32319
тей	-9.32385
бан	-9.32395
бүлезинге	-9.32465
13	-9.32556
▁Моол	-9.32559
▁Па	-9.32581
ора	-9.32611
▁шай	-9.32764
▁1994	-9.32778
▁чада	-9.32876
▁журнал	-9.32917
▁сүт	-9.32944
▁калган	-9.32965
бай	-9.33123
▁раз	-9.33173
нныӊ	-9.332
▁эът	-9.33222
эт	-9.33226
лей	-9.33365
▁алганнар	-9.33418
2011	-9.3342
▁ыңай	-9.33465
ti	-9.33491
Эр	-9.33529
ика	-9.33649
▁канчаар	-9.33732
▁Сергей	-9.33735
Ц	-9.33803
▁далай	-9.33813
дээр	-9.33816
as	-9.33934
▁философия	-9.33945
2013	-9.33981
▁удуртулгазы	-9.33996
▁Оюн	-9.34008
кандыг	-9.3403
▁Кор	-9.34057
тын	-9.34162
▁эртемнер	-9.34276
выс	-9.34313
▁Ле	-9.34339
▁a	-9.34439
▁=	-9.3446
фа	-9.3447
Чурттакчы	-9.34498
▁хевир	-9.34551
Ха	-9.34564
▁санаар	-9.34576
▁чурттар	-9.34604
▁кандидат	-9.34751
үг	-9.34873
▁план	-9.34875
▁кат	-9.34934
кол	-9.34935
▁Анна	-9.34962
▁экз	-9.3505
Со	-9.35126
бер	-9.35133
▁академиязының	-9.35227
шы	-9.35244
▁эртемнери	-9.35272
рон	-9.35277
▁болуру	-9.35324
ца	-9.35407
чүс	-9.35432
▁када	-9.35474
>	-9.35591
Совет	-9.35595
▁ажылдаар	-9.35705
▁чай	-9.35754
Өг	-9.35801
▁көже	-9.35809
мал	-9.3581
Ал	-9.35813
ter	-9.35821
тал	-9.35939
80	-9.36007
2008	-9.36079
▁традиции	-9.36132
▁ыдыктыг	-9.36145
▁аай	-9.36174
▁Бел	-9.36199
▁оол	-9.36236
▁чаалап	-9.36315
▁Төп	-9.36432
▁те	-9.36552
▁делегейниң	-9.3672
▁чурттаар	-9.36769
▁ук	-9.36865
▁сал	-9.37013
de	-9.37027
▁Турцияның	-9.37078
▁23	-9.37283
1990	-9.37397
▁ССР	-9.37526
▁партия	-9.37604
ется	-9.37687
_	-9.3777
▁удуртуп	-9.37786
Төөгү	-9.37788
▁вы	-9.37804
арын	-9.37804
оолович	-9.37983
▁во	-9.37987
наар	-9.38146
▁кызы	-9.38201
Ак	-9.38228
V	-9.38277
▁актёр	-9.38323
ён	-9.38418
▁дең	-9.38444
тун	-9.38455
▁бижиир	-9.38466
02	-9.38484
дөрт	-9.38487
ажы	-9.38522
▁чериниң	-9.38774
оолдуң	-9.38855
▁холу	-9.38856
▁ажыткан	-9.38946
Амгы	-9.38997
це	-9.39084
▁1960	-9.39158
▁Ха	-9.39244
▁удаа	-9.3926
▁чорудуп	-9.3932
▁самбо	-9.39475
▁аймактың	-9.39512
▁ашаа	-9.39533
бичии	-9.39565
25	-9.39573
бор	-9.39733
▁хүнү	-9.3975
▁Олимпий	-9.39842
▁дүрген	-9.39927
▁ыр	-9.39994
▁камгалап	-9.40002
▁шинчилеп	-9.40008
▁ор	-9.4004
▁1980	-9.40067
▁хо	-9.40154
▁ve	-9.40166
ать	-9.40192
70	-9.40196
Ме	-9.4026
▁үр	-9.4028
Алфавитт	-9.40396
▁үндүр	-9.40432
▁олурар	-9.40463
03	-9.40483
▁күштүг	-9.40565
▁дылы	-9.4064
▁эргелиг	-9.40682
уд	-9.40694
▁Ду	-9.40716
2006	-9.40759
чаңгыс	-9.40771
▁долгандыр	-9.40852
тарга	-9.40908
▁наук	-9.40942
▁хемниң	-9.41113
▁том	-9.41127
].	-9.41196
▁Ивановна	-9.41202
уш	-9.41234
▁1966	-9.4125
▁диссертациязын	-9.41267
▁Ондар	-9.41314
▁институт	-9.41333
▁Башкир	-9.4138
▁хүреш	-9.4147
▁барыын	-9.41476
▁Ордени	-9.41502
L	-9.41515
кон	-9.41518
гү	-9.41529
▁50	-9.41551
▁III	-9.41566
28	-9.41705
▁хүлер	-9.41705
ики	-9.41793
▁имени	-9.41839
▁чырык	-9.41914
сан	-9.41969
▁1941	-9.42159
26	-9.42233
ери	-9.42267
▁кээп	-9.4228
21	-9.42322
08	-9.42329
өр	-9.42392
рен	-9.42399
▁O	-9.42417
▁онза	-9.42525
▁туруп	-9.42539
▁чугаалап	-9.42545
▁адазы	-9.42571
▁амыдырал	-9.42631
фи	-9.42651
▁Красноярск	-9.42657
▁ужур	-9.42674
▁Таңды	-9.42718
▁маадыры	-9.42777
▁Башкы	-9.42878
ском	-9.42902
▁чыып	-9.42947
▁де	-9.42972
ya	-9.42977
▁1969	-9.43013
▁шагда	-9.43116
ыг	-9.43121
кор	-9.43138
щи	-9.43161
Социалисти	-9.43269
Бай	-9.43298
▁28	-9.43391
”,	-9.43425
▁Не	-9.43428
▁уругну	-9.43436
▁чылын	-9.43517
▁Де	-9.43522
ФК	-9.43607
▁эгелээш	-9.43616
▁гол	-9.43644
▁языке	-9.43677
бот	-9.43705
овка	-9.43731
▁1991	-9.43848
▁үннер	-9.4396
com	-9.43998
▁Y	-9.44012
кчызы	-9.44058
▁1964	-9.44184
▁мөге	-9.44259
▁кым	-9.44262
2012	-9.44309
▁аймактар	-9.44358
▁чүвени	-9.44411
▁Германия	-9.44429
▁аныяктар	-9.44447
▁Ша	-9.44508
ение	-9.44534
сер	-9.44776
▁кыры	-9.44847
▁школазынга	-9.44866
▁Көк	-9.44908
зү	-9.44936
чеди	-9.44947
рус	-9.44986
▁эртер	-9.45072
▁турк	-9.45116
тт	-9.45197
▁истории	-9.45203
▁Сарыг	-9.45216
▁киржикчизи	-9.45224
яр	-9.45363
тарын	-9.45454
▁клуб	-9.45479
тээр	-9.4561
▁машина	-9.45611
2005	-9.45647
нь	-9.45728
др	-9.45749
▁Мурнуу	-9.45774
▁Министерств	-9.45789
▁гвардейжи	-9.45798
сон	-9.4581
Ар	-9.45823
▁чоннар	-9.45842
▁изиг	-9.45895
▁иштинге	-9.45923
Суур	-9.46113
▁шөлү	-9.46192
▁черде	-9.46301
24	-9.46314
юридиктиг	-9.46397
хүн	-9.46414
▁чүүлдери	-9.46426
▁көстүп	-9.46437
▁тыртар	-9.46465
▁оюн	-9.46499
▁Хо	-9.465
ще	-9.46598
лерин	-9.46612
▁Национал	-9.46645
▁1942	-9.46661
сь	-9.46756
жар	-9.46889
▁хөөмей	-9.469
▁Николай	-9.46934
▁бүдүн	-9.46953
ажылчы	-9.46976
▁камгалаан	-9.47001
07	-9.47024
Турк	-9.47037
▁даш	-9.47096
▁Ди	-9.47157
лүг	-9.47179
▁хүрээ	-9.47225
нуг	-9.47271
▁The	-9.47307
инг	-9.47314
ткаш	-9.47334
ажык	-9.47337
Аксы	-9.47341
тос	-9.47348
дап	-9.47425
Ажыл	-9.47481
лааш	-9.47554
арыг	-9.47649
▁көжүп	-9.47659
пас	-9.47703
ç	-9.47788
▁байдалы	-9.47899
▁ша	-9.47914
▁амы	-9.47967
Y	-9.48
нун	-9.48013
2002	-9.48041
гыр	-9.48083
дын	-9.48091
▁соок	-9.48113
▁пере	-9.48118
▁бистиң	-9.48124
мы	-9.48163
▁дузазы	-9.48218
ава	-9.4824
түг	-9.48246
еж	-9.48254
▁француз	-9.48349
th	-9.4836
01	-9.48434
▁кур	-9.48456
▁ырак	-9.48527
▁1943	-9.48542
▁L	-9.48572
▁1970	-9.48594
▁бодап	-9.48604
▁чу	-9.4877
ation	-9.48811
амгы	-9.48832
▁Тывага	-9.48873
▁Түрк	-9.49056
▁арт	-9.49064
рей	-9.49164
Не	-9.49185
▁быжыг	-9.49275
▁үндүрүп	-9.49457
▁тайлы	-9.49464
▁мындыг	-9.49466
iz	-9.49467
дуң	-9.49588
▁секретары	-9.49639
▁чиир	-9.49661
ыс	-9.49669
нарны	-9.4967
▁им	-9.4982
хол	-9.49898
▁дедир	-9.50037
22	-9.50055
www	-9.50067
▁арын	-9.50086
тараа	-9.50093
ация	-9.50095
▁кежи	-9.50121
▁чемпионадынга	-9.50144
шын	-9.50215
ана	-9.50227
чин	-9.50239
60	-9.50255
▁совхоз	-9.50267
лерге	-9.50375
▁c	-9.50442
ень	-9.50485
нап	-9.50504
▁камгалал	-9.50672
▁күжү	-9.50692
▁шинчилээр	-9.50701
2015	-9.50742
▁Тувинско	-9.50762
▁эжи	-9.50765
▁хемчээли	-9.50779
▁университеди	-9.50838
граф	-9.50889
-1	-9.51055
▁Ал	-9.51063
лог	-9.51239
04	-9.51262
2016	-9.51279
▁американ	-9.51284
▁Ту	-9.51318
▁мөчээн	-9.51324
иези	-9.51369
нова	-9.51467
▁Бүгү	-9.51507
▁Мар	-9.51577
ka	-9.51653
▁дорт	-9.51673
2007	-9.517
44	-9.51715
▁институдун	-9.51746
▁харылзаа	-9.51756
терин	-9.51773
лаашкын	-9.51777
▁доктор	-9.51924
2017	-9.51971
▁уткалыг	-9.52046
▁Сер	-9.52074
▁чаагай	-9.52099
ней	-9.52124
▁дораан	-9.52139
дүр	-9.5214
▁Хүн	-9.52166
▁чылдын	-9.52249
узу	-9.52317
▁метр	-9.52457
▁утка	-9.525
▁чылы	-9.52555
2004	-9.52565
▁СЭКП	-9.52592
▁көрген	-9.52657
ели	-9.5271
ант	-9.52795
▁бурунгаар	-9.52859
терни	-9.52994
▁чогаалчылар	-9.53054
▁тергиин	-9.53084
▁англи	-9.53185
▁кежигүннери	-9.53236
▁сылдыс	-9.53251
▁1971	-9.53257
География	-9.53268
▁чыындызы	-9.53382
▁ме	-9.5341
▁кел	-9.53433
▁состав	-9.53556
гун	-9.53567
ным	-9.53579
алыг	-9.53633
▁сам	-9.53648
▁бижи	-9.53749
▁шүлүктер	-9.53791
летию	-9.53795
уг	-9.53798
рин	-9.53817
▁хамаарышкан	-9.53877
▁сууру	-9.53889
▁айтып	-9.53898
▁даг	-9.53905
▁1986	-9.5399
▁кафедразы	-9.53992
▁Иван	-9.54106
▁языка	-9.54123
▁Кал	-9.54255
кина	-9.5431
x	-9.54427
▁РФ	-9.54461
▁Sayı	-9.54532
акты	-9.54563
▁карак	-9.5462
▁так	-9.54683
▁бурган	-9.54712
▁Ро	-9.54729
Ре	-9.54829
▁шуут	-9.54894
Бажы	-9.54942
кур	-9.5497
▁ма	-9.55069
кай	-9.55083
▁белен	-9.55096
▁Лу	-9.55129
▁илередип	-9.55207
чур	-9.5524
▁ынчаар	-9.55292
▁Ынчан	-9.55317
Че	-9.55353
▁1976	-9.55447
▁бээрге	-9.55477
▁1975	-9.55522
мон	-9.55531
Чер	-9.55602
▁%	-9.55647
аът	-9.5567
▁футбол	-9.55757
деп	-9.55797
▁чедиишкинниг	-9.55843
▁билбес	-9.55847
▁артып	-9.55895
1992	-9.5613
амы	-9.56154
▁куду	-9.56165
06	-9.5622
▁кадайы	-9.56222
▁инженер	-9.56295
рис	-9.56309
57	-9.56329
▁шиитпир	-9.56336
▁3-	-9.56346
▁чугаалар	-9.56403
▁кандидады	-9.565
▁категория	-9.565
▁таварышкан	-9.56532
ово	-9.56559
шинчилел	-9.56587
▁чээрби	-9.56671
▁Ооржак	-9.56693
▁дылче	-9.56717
▁бы	-9.56799
▁эл	-9.56803
▁изд	-9.56833
▁1988	-9.56858
▁СПб	-9.5687
▁делегейде	-9.56872
Ба	-9.56895
беш	-9.56987
щ	-9.57031
тик	-9.57095
▁Бурган	-9.57102
лээн	-9.57113
2003	-9.57126
ul	-9.5716
▁Будда	-9.57164
лел	-9.57247
▁ү	-9.57263
ала	-9.57267
▁шаг	-9.57321
▁района	-9.57382
эки	-9.57436
▁ыраажы	-9.57438
зинге	-9.57538
▁сеткил	-9.57555
▁(19	-9.57578
али	-9.57668
▁оң	-9.57727
▁пол	-9.57749
▁черинге	-9.57765
түр	-9.57803
▁кижизи	-9.57835
▁шыдавас	-9.57845
▁хоорайда	-9.57879
▁шии	-9.57913
▁Кыдат	-9.57919
▁Си	-9.57945
рган	-9.58044
ние	-9.58135
▁чылдарның	-9.58173
▁1983	-9.58183
▁Тывада	-9.58207
жып	-9.58336
жок	-9.58366
▁лама	-9.58402
▁ёзу	-9.58427
▁түңнелинде	-9.58543
дов	-9.58564
▁труд	-9.58565
дуг	-9.58595
Орус	-9.58759
тика	-9.58771
▁тоол	-9.58798
ir	-9.58984
▁ниитилел	-9.59003
▁Российско	-9.59004
▁алфавит	-9.59033
ic	-9.59052
▁сайт	-9.59101
▁гвардия	-9.59194
▁тиилээн	-9.59195
▁баштыңы	-9.59201
▁салган	-9.5925
▁мөңгүн	-9.59255
Чаа	-9.5928
Ленин	-9.59393
1999	-9.59457
1991	-9.59516
82	-9.59534
▁дом	-9.59586
дун	-9.59617
▁спортчу	-9.59739
Ай	-9.59783
нери	-9.59797
▁уругнуң	-9.59805
▁херээженнер	-9.59849
▁тураскааткан	-9.59879
аж	-9.599
▁эрттирген	-9.59902
▁Под	-9.59929
дым	-9.59988
ut	-9.59994
▁илередир	-9.60015
▁номчуп	-9.60059
өрү	-9.6007
таан	-9.60101
▁Ра	-9.60114
▁оюннар	-9.60151
күш	-9.60151
▁тус	-9.60193
▁гг	-9.60232
▁Дж	-9.60245
мир	-9.60314
▁школазы	-9.60335
▁демдек	-9.60389
▁балык	-9.60407
▁хары	-9.60418
атор	-9.60421
▁я	-9.60443
жыр	-9.6045
▁Чи	-9.60526
▁чоруткан	-9.60574
▁образования	-9.60581
▁чанынга	-9.60602
▁туткан	-9.60641
ki	-9.60666
▁ду	-9.60707
5.	-9.6074
ad	-9.60785
дээ	-9.6081
▁садып	-9.60866
иишкин	-9.60943
терге	-9.60944
Бу	-9.60959
▁1944	-9.60963
кчы	-9.60971
▁ком	-9.60984
азын	-9.61012
▁роман	-9.61173
▁чедирер	-9.6118
▁чүүлдү	-9.61185
даш	-9.61191
▁болу	-9.61196
зун	-9.61197
▁айтырыглар	-9.61248
▁чогу	-9.61252
ba	-9.61256
еп	-9.6139
▁Ийи	-9.61422
▁хап	-9.61472
▁ажылдарын	-9.6158
Москва	-9.6164
▁de	-9.61643
▁стр	-9.61673
▁социал	-9.61693
▁ажылда	-9.6176
va	-9.61772
▁ижер	-9.61812
ээш	-9.6188
▁чажы	-9.61883
▁институдунга	-9.61891
▁Би	-9.61905
Алдын	-9.61965
2000	-9.62016
7.	-9.62031
▁ху	-9.62034
»),	-9.62062
man	-9.62095
▁профессору	-9.62198
Орден	-9.62278
▁бажын	-9.62305
▁культуразы	-9.62325
▁Изд	-9.62355
▁тураскаал	-9.62388
Суг	-9.62388
▁Ленинград	-9.62393
лал	-9.62412
вайн	-9.62495
se	-9.62574
▁Каа	-9.62627
▁чуртталга	-9.62659
▁көргүзүп	-9.62668
▁Дараазында	-9.62734
▁Ам	-9.62755
▁1947	-9.62783
▁ээп	-9.62817
▁тодаргай	-9.62852
▁народа	-9.62897
шкен	-9.63084
эл	-9.63154
▁экономика	-9.63156
жир	-9.6317
.&	-9.63181
▁үре	-9.632
ход	-9.63276
▁1948	-9.63283
▁Издательство	-9.63376
▁Кубогу	-9.63376
чик	-9.63447
иде	-9.63465
▁дня	-9.63468
▁салбыры	-9.63547
▁Михаил	-9.63559
тура	-9.63579
▁Ат	-9.63647
▁кыска	-9.63647
бил	-9.63668
▁эш	-9.63751
1997	-9.63792
▁харыы	-9.63815
▁маргылдаа	-9.63939
▁борбак	-9.63962
▁60	-9.64018
▁Орус	-9.64023
▁Ман	-9.64055
▁депутады	-9.6409
сагыш	-9.64117
▁чуртап	-9.64124
▁1940	-9.6419
84	-9.64231
▁суд	-9.64248
▁Эл	-9.64257
▁өскелер	-9.64322
вен	-9.64349
▁Башкортостан	-9.64423
иге	-9.64433
31	-9.64444
Маадыр	-9.64458
үрү	-9.64462
▁хамык	-9.64527
ларда	-9.6455
ch	-9.64566
байн	-9.64585
▁был	-9.64627
карак	-9.64653
▁медицина	-9.64659
шин	-9.64664
▁хову	-9.64682
лаары	-9.64684
▁чигир	-9.64802
▁чорааш	-9.6481
▁чылдарында	-9.6483
▁нарын	-9.64863
ток	-9.64876
Са	-9.64995
▁нам	-9.65006
▁аажы	-9.6501
ву	-9.65073
▁1972	-9.6511
ашкын	-9.65111
орус	-9.65163
29	-9.65211
▁кыл	-9.65213
▁Му	-9.65219
▁талазындан	-9.65228
▁1974	-9.65247
мент	-9.65298
▁ында	-9.65314
три	-9.65333
ско	-9.65368
чүүл	-9.65447
▁Мо	-9.65469
▁ку	-9.65483
▁өңнүг	-9.65538
син	-9.65563
иц	-9.65606
▁1984	-9.65665
тып	-9.65758
▁долу	-9.65779
ci	-9.65885
ону	-9.65962
▁тоолдар	-9.66075
▁байдалдар	-9.66106
аза	-9.66138
кер	-9.66143
Хемниң	-9.66168
▁премия	-9.66264
при	-9.66266
▁четкен	-9.66274
▁филология	-9.66293
▁p	-9.6635
▁Кон	-9.66409
лган	-9.66411
▁чылдагааны	-9.66445
▁Европаның	-9.66469
▁ха	-9.66479
пкан	-9.66498
▁кал	-9.66498
▁Чижээ	-9.66561
▁факультеди	-9.66575
ции	-9.66612
ош	-9.66668
“	-9.66706
чугаа	-9.6675
лип	-9.66784
2009	-9.6683
ски	-9.66876
▁чүү	-9.669
▁его	-9.66956
▁көвей	-9.67003
▁алдар	-9.67027
▁темазы	-9.67038
▁үжен	-9.67168
▁чаңчылдары	-9.67175
▁200	-9.67217
▁четпес	-9.67312
ара	-9.67331
адыр	-9.67345
▁1930	-9.67454
▁намдары	-9.67485
Ко	-9.67511
зүн	-9.67621
Турцияның	-9.67622
▁радио	-9.67666
Ку	-9.67684
//	-9.67703
▁чогааткан	-9.67744
▁1968	-9.67754
дам	-9.67795
кижи	-9.678
ность	-9.67807
um	-9.67813
Улай	-9.67848
дуза	-9.68013
став	-9.68021
▁сол	-9.68044
ёт	-9.68113
тас	-9.68233
ют	-9.68265
хаан	-9.6829
төр	-9.68364
сес	-9.6841
1989	-9.68418
тя	-9.68424
▁Бе	-9.6845
▁сайыды	-9.68486
ow	-9.6853
хөө	-9.68564
▁району	-9.68577
▁чоруй	-9.68585
6.	-9.68648
▁шаңналын	-9.68684
am	-9.6881
▁1949	-9.68817
▁1981	-9.68922
бүгү	-9.69014
▁векте	-9.69027
▁что	-9.69065
аъш	-9.69097
▁сөстү	-9.69168
эй	-9.69191
кеш	-9.69212
▁Вып	-9.69236
▁Федерации	-9.69238
▁Чазаа	-9.69239
▁киирип	-9.69296
ғ	-9.69409
98	-9.6949
66	-9.69625
▁шинчилел	-9.69686
ности	-9.69695
▁кө	-9.6976
▁бил	-9.69784
▁бүдүрүлге	-9.69944
цы	-9.69953
▁5-	-9.69978
Бадыргы	-9.69996
▁чүкте	-9.70021
лат	-9.70033
▁вектиң	-9.70052
илер	-9.70064
▁кээрге	-9.7009
вед	-9.70107
До	-9.70146
▁чүүлү	-9.70177
кчи	-9.7018
▁1978	-9.70205
▁1967	-9.70277
ства	-9.70358
▁даңзызы	-9.70381
▁чижээ	-9.70385
лия	-9.70416
▁тыпсыры	-9.70441
▁Про	-9.70443
тиктиг	-9.7046
зинде	-9.70484
лып	-9.70494
90	-9.7054
рес	-9.70547
Ийи	-9.70579
2018	-9.70605
▁1961	-9.70661
▁1959	-9.70686
▁0	-9.70701
▁узуну	-9.70711
▁род	-9.70728
Тайылбыр	-9.70759
▁чар	-9.70777
▁РАН	-9.70788
▁см	-9.70813
▁санныг	-9.70829
▁чиңге	-9.70837
▁Май	-9.70848
▁Биче	-9.709
▁Сибири	-9.70959
ща	-9.70967
мет	-9.71015
▁хевирлери	-9.7104
▁чиик	-9.71052
▁шо	-9.71091
▁чугаалаан	-9.71172
▁Бар	-9.71179
▁хааны	-9.71276
▁үнүш	-9.71291
чай	-9.71308
▁бөдүүн	-9.71314
алдын	-9.71317
▁сезон	-9.71346
озу	-9.71439
▁инек	-9.71452
▁айыыл	-9.71481
Ө	-9.71499
▁заслуги	-9.71528
▁тепкен	-9.71529
▁Нобель	-9.71529
▁болгай	-9.71532
дор	-9.71613
ay	-9.71658
▁Ши	-9.71722
▁аймаа	-9.71725
гей	-9.71747
▁олур	-9.71795
пис	-9.71832
зиниң	-9.71873
▁билдинмес	-9.71957
пес	-9.72011
▁век	-9.72027
▁далган	-9.72106
ний	-9.72133
Ли	-9.72194
38	-9.72263
▁ту	-9.72273
▁дүшкен	-9.72304
ak	-9.72319
евна	-9.72321
▁хонук	-9.72346
▁общества	-9.72405
ö	-9.7249
▁др	-9.72538
ужу	-9.72594
No	-9.72625
казы	-9.72768
▁кадыг	-9.72799
ge	-9.72853
▁чедиишкиннер	-9.72893
ia	-9.72947
▁бода	-9.7295
em	-9.73087
▁якут	-9.73091
64	-9.73095
▁ачы	-9.73201
▁Шериг	-9.73209
▁Саян	-9.73244
▁чырыкче	-9.73304
▁оолдар	-9.73323
▁назыны	-9.73341
▁ок	-9.73392
39	-9.73534
▁дылдыг	-9.73581
ент	-9.73591
▁ажылдарының	-9.73664
▁кожа	-9.73742
алар	-9.73771
Моңгуш	-9.73807
▁школага	-9.73898
▁завод	-9.73929
лит	-9.73963
1980	-9.7397
▁чорудар	-9.73998
▁чеде	-9.74004
мык	-9.74082
▁ажылчын	-9.74123
▁дыштанылга	-9.74126
▁N	-9.74172
лова	-9.74172
ижи	-9.74218
▁моолдар	-9.74225
▁арай	-9.74273
род	-9.74392
▁ажылды	-9.74433
зынче	-9.74584
мага	-9.74596
бол	-9.74647
▁тараачын	-9.74667
Төөгүзү	-9.7468
▁её	-9.74707
ları	-9.74768
1998	-9.74836
▁хеп	-9.74844
▁факультедин	-9.74867
▁үне	-9.74948
чорук	-9.75015
дүн	-9.75016
▁Да	-9.75037
овтуң	-9.75054
▁боо	-9.75138
▁час	-9.75159
▁Испания	-9.75172
▁черлери	-9.75192
▁чая	-9.75194
▁чемпион	-9.75211
чук	-9.75227
▁1987	-9.75259
тыва	-9.75262
▁көөрге	-9.75289
ларынга	-9.75301
ek	-9.75322
▁чурттакчы	-9.75361
▁округ	-9.75406
Доржу	-9.75448
▁лауреады	-9.75466
▁января	-9.75466
42	-9.7568
эң	-9.7571
▁маадыр	-9.75722
көк	-9.75735
▁угда	-9.7576
▁Буян	-9.75789
▁үжүк	-9.75793
ыышкын	-9.75824
▁1973	-9.75849
leri	-9.75865
▁медээ	-9.75914
узун	-9.75927
41	-9.7599
▁Киев	-9.76052
вис	-9.76105
U	-9.76226
Де	-9.76243
СЭКП	-9.76271
ӗ	-9.76272
▁депутаттары	-9.76288
▁бас	-9.76302
рос	-9.76319
▁Ин	-9.76324
▁1945	-9.76352
кады	-9.76383
1996	-9.76406
чет	-9.76461
▁хал	-9.76461
&	-9.76486
ём	-9.76497
цен	-9.76576
▁рас	-9.76582
▁шыырак	-9.76622
лык	-9.76659
▁өшкү	-9.76678
▁чаңчыл	-9.76956
▁тала	-9.77064
▁укталган	-9.77085
Кожуун	-9.77089
▁соревнования	-9.77094
бурунгу	-9.77113
▁өлген	-9.77119
Казахстан	-9.77119
ху	-9.77174
▁адыры	-9.77206
бал	-9.7724
▁метод	-9.77263
Про	-9.77322
зиг	-9.77372
▁журналист	-9.7738
▁төнчүзүнде	-9.77435
Ле	-9.77443
уру	-9.77498
▁1957	-9.77502
үм	-9.77581
▁Алтай	-9.776
▁Академиязы	-9.7771
ань	-9.77719
09	-9.77824
Су	-9.77848
▁Турк	-9.77886
▁су	-9.77895
▁даглар	-9.77933
▁черле	-9.77956
ыыр	-9.77964
▁Виктор	-9.77985
овский	-9.78025
раз	-9.78069
▁пер	-9.78073
1985	-9.78113
▁бү	-9.78114
▁кадык	-9.78192
▁техниктиг	-9.78213
▁чогаалдары	-9.7828
итель	-9.78361
вод	-9.78481
▁согун	-9.78493
▁улустар	-9.78499
▁орден	-9.78503
▁Z	-9.78527
ывыс	-9.78536
▁Те	-9.78538
▁көөрү	-9.78551
гур	-9.78576
өө	-9.78587
▁шаанда	-9.78589
▁орустар	-9.78684
алчы	-9.78703
▁айда	-9.78728
▁институду	-9.78734
Медали	-9.78738
▁мурнунга	-9.78743
про	-9.78804
▁эде	-9.78828
град	-9.79033
▁сава	-9.79051
▁бодал	-9.79072
▁чамдыкта	-9.79074
кти	-9.7908
ышкын	-9.79096
▁тувинско	-9.79142
еш	-9.79143
▁кире	-9.79246
ваан	-9.79301
нуӊ	-9.7931
▁дыңна	-9.79344
▁чү	-9.79393
ä	-9.79445
▁дзюдо	-9.79565
▁тѳрүттүнген	-9.79565
▁ажыглаттынып	-9.79567
▁дилеп	-9.79622
шии	-9.79768
Уран	-9.79805
кой	-9.79815
▁тренери	-9.79816
92	-9.79831
▁эрттирер	-9.79837
жип	-9.79839
Шын	-9.7984
▁31	-9.79885
▁бергеш	-9.79911
▁номнары	-9.79919
▁салгал	-9.80001
▁башкир	-9.80155
▁чазак	-9.80347
▁награжден	-9.80405
▁Хар	-9.80433
Медаль	-9.80438
▁каттышкан	-9.80455
▁орденом	-9.8047
ница	-9.80486
▁Якутск	-9.80536
▁Федерация	-9.80582
▁80	-9.80589
ыт	-9.80596
дедир	-9.80615
2001	-9.80631
▁сураглыг	-9.80639
▁өрү	-9.80662
Моол	-9.80669
54	-9.80711
үжү	-9.80726
▁Ру	-9.80733
жан	-9.80737
▁но	-9.80746
▁шыдаар	-9.80837
▁таваржыр	-9.80901
▁эрттир	-9.80917
▁Кар	-9.80966
▁J	-9.80984
истер	-9.81055
▁дүжер	-9.81123
ажылга	-9.81137
берге	-9.81139
шке	-9.81186
▁фи	-9.81192
▁Ху	-9.81246
▁млн	-9.81258
неп	-9.8129
▁тудуг	-9.81368
Өө	-9.81403
▁кааптар	-9.81476
1993	-9.81483
▁Он	-9.81488
▁1989	-9.8149
▁тө	-9.81528
нарын	-9.81709
вал	-9.8175
фор	-9.81768
лыр	-9.81787
▁Баян	-9.81878
май	-9.81879
Чогаалчы	-9.81926
▁От	-9.81933
vi	-9.81941
ттар	-9.82032
шкан	-9.82037
Ң	-9.82105
▁Чөвүлелиниң	-9.82122
▁шавар	-9.82128
▁чурттакчылыг	-9.82205
▁кагар	-9.82256
▁пи	-9.82306
▁Ук	-9.82347
ie	-9.82387
▁чажыт	-9.8244
▁чоорту	-9.82447
▁эп	-9.8247
▁1.	-9.82479
85	-9.82627
▁Американың	-9.82647
ред	-9.82735
▁Казань	-9.82753
хуу	-9.82777
▁40	-9.82799
36	-9.82958
Футбол	-9.82969
▁мурнакчызы	-9.82971
ээри	-9.82994
▁чи	-9.83009
▁система	-9.83025
▁хей	-9.83049
үндүлүг	-9.83054
▁1956	-9.8309
зан	-9.83097
▁ужар	-9.8313
▁U	-9.83134
▁акызы	-9.83165
▁университединге	-9.832
▁хөл	-9.83205
▁политиктиг	-9.83285
▁амытан	-9.83319
ha	-9.83338
▁аразының	-9.83439
гээр	-9.83446
▁Иркутск	-9.83452
▁ажылының	-9.83475
▁комитеди	-9.83479
аарыг	-9.83528
агыйның	-9.83544
95	-9.83553
▁школаны	-9.83647
▁хаанның	-9.83674
мар	-9.83729
рып	-9.83778
мас	-9.83813
лук	-9.83824
гин	-9.83838
ӑ	-9.83839
▁рождения	-9.83839
чан	-9.83854
▁эртип	-9.8387
рова	-9.83908
-2	-9.83915
бус	-9.83977
id	-9.84063
Türk	-9.84097
91	-9.84144
бр	-9.84145
▁Краснодар	-9.84173
▁мира	-9.84237
1994	-9.84243
▁буду	-9.84263
▁чарып	-9.84273
▁хора	-9.84342
▁Казах	-9.84344
▁административтиг	-9.84383
тырып	-9.84388
56	-9.84497
68	-9.84518
▁70	-9.84535
▁болуушкуннар	-9.84553
рай	-9.84589
87	-9.84599
▁ве	-9.84612
▁Институт	-9.84642
9.	-9.84649
▁1985	-9.8467
▁демисел	-9.84716
▁таарыштыр	-9.84717
▁улаштыр	-9.84717
▁Чогаалчылар	-9.84721
▁барымдаа	-9.8473
▁(2007)	-9.84737
аб	-9.84841
Сал	-9.84842
Мо	-9.84865
чыл	-9.85
цион	-9.85015
▁Шак	-9.85026
том	-9.85042
▁бодалдар	-9.85045
дел	-9.85051
▁хемнер	-9.85084
рген	-9.85084
▁Даштыкы	-9.85122
вид	-9.8516
ож	-9.8521
өл	-9.85229
лажыр	-9.85263
як	-9.85289
ография	-9.85331
▁кылыры	-9.85393
руд	-9.85416
Ту	-9.85425
чак	-9.85501
ттынган	-9.85518
өөр	-9.85568
▁хевээр	-9.85601
▁идепкейлиг	-9.85601
▁дижир	-9.85619
сел	-9.85633
ларлыг	-9.85636
▁хемчеглер	-9.85639
▁1962	-9.85663
чорудулгазы	-9.85682
▁Ольга	-9.85721
▁девискээринге	-9.85737
ске	-9.85742
▁пре	-9.85758
▁Бурят	-9.85777
75	-9.85838
▁сөөк	-9.85844
бри	-9.85943
▁90	-9.85953
▁чурту	-9.85977
рук	-9.86045
кызыл	-9.86051
чорудулга	-9.86059
ыяш	-9.8606
рок	-9.86088
▁1938	-9.86171
▁үнүштер	-9.86417
▁или	-9.86429
Тиилелге	-9.86494
▁литературлуг	-9.86504
▁Улан	-9.86506
▁шаңналы	-9.86511
▁алыс	-9.86545
8.	-9.86559
▁катты	-9.86563
▁Наука	-9.86639
▁Шу	-9.86651
намдары	-9.86678
▁килдизиниң	-9.86712
Бал	-9.86742
▁арага	-9.86844
▁При	-9.8687
▁кавалер	-9.86879
1974	-9.869
лдыр	-9.86905
дүрүм	-9.8698
▁1963	-9.8698
1970	-9.87005
▁Индия	-9.87028
▁теве	-9.8703
хай	-9.8707
▁гл	-9.87102
▁электро	-9.87144
▁организация	-9.87153
▁шаа	-9.87174
▁үлетпүр	-9.8719
q	-9.87245
▁шилчи	-9.87254
▁1925	-9.87257
▁садыг	-9.87361
▁хамаарылга	-9.87391
	-9.87395
▁областың	-9.87399
▁эрттирип	-9.87416
авазы	-9.87425
▁кежигүүнү	-9.87425
▁эмнелге	-9.87434
▁1958	-9.87487
кт	-9.87498
ланып	-9.8752
▁язык	-9.8752
тарының	-9.87567
▁өөренир	-9.87672
▁1982	-9.87713
▁комитединиң	-9.87769
чөөн	-9.8779
бек	-9.87815
▁чогаадыкчы	-9.87817
Европа	-9.87824
1981	-9.87837
▁Эртем	-9.87854
баан	-9.87865
▁1965	-9.87883
Тал	-9.8799
▁Кур	-9.87996
1944	-9.88023
▁өгбелери	-9.88051
▁камгалаар	-9.8811
▁Франция	-9.88111
73	-9.88127
49	-9.88154
▁ажылынга	-9.88349
▁российжи	-9.88385
to	-9.88414
цев	-9.88491
▁календарь	-9.88567
▁s	-9.88617
▁культуры	-9.88625
no	-9.88625
пан	-9.88628
рет	-9.88712
хоорай	-9.88724
▁тувинском	-9.88762
▁аал	-9.8881
▁1953	-9.88885
нский	-9.88909
▁депутат	-9.88943
▁Пол	-9.88971
Мен	-9.88979
нээр	-9.89052
62	-9.89091
▁девискээринде	-9.8913
▁декабря	-9.89221
▁өзүп	-9.89221
▁ховар	-9.89247
слав	-9.89362
▁дөртен	-9.8937
фон	-9.89387
lı	-9.89474
°	-9.89479
стра	-9.89493
лген	-9.8952
▁1955	-9.89564
язы	-9.89583
▁Об	-9.89584
ино	-9.8959
▁номнар	-9.89592
▁айы	-9.89603
ини	-9.89614
Он	-9.89627
The	-9.89693
1983	-9.89743
ио	-9.89783
▁уг	-9.89817
▁Тук	-9.8983
▁алдан	-9.89856
▁дылды	-9.89931
▁чүнү	-9.89939
▁ю	-9.89939
76	-9.9005
чек	-9.90074
▁ноября	-9.90147
▁жизни	-9.90147
51	-9.90154
▁херээ	-9.9016
W	-9.90258
сс	-9.90292
▁овур	-9.90307
То	-9.90338
▁ажылдар	-9.90417
▁она	-9.90548
ить	-9.90562
58	-9.90563
лад	-9.90565
овая	-9.90623
J	-9.90641
▁Эң	-9.9066
1973	-9.90729
ün	-9.90756
дь	-9.90765
▁хам	-9.90808
77	-9.90887
▁туружу	-9.90936
▁өөредип	-9.91084
Удэ	-9.91085
▁Союза	-9.91087
▁балет	-9.91129
▁пред	-9.91137
▁дуңмазы	-9.91139
▁1950	-9.91197
рим	-9.91198
▁теле	-9.91276
▁1999.	-9.91308
▁черин	-9.91387
дук	-9.91465
▁төвүт	-9.91521
Башкир	-9.91618
агыйы	-9.91623
инский	-9.91637
чүве	-9.91669
▁сая	-9.91705
▁улуска	-9.91731
▁Книга	-9.91749
▁хоорайлар	-9.91765
81	-9.91766
▁бергеннер	-9.91797
аажок	-9.91834
рек	-9.91847
▁чеден	-9.91855
▁чоруу	-9.91869
Эң	-9.91874
▁Салчак	-9.91965
▁эмчизи	-9.91967
чагырга	-9.92001
Үш	-9.92004
β	-9.92025
▁сер	-9.92053
лав	-9.92098
▁концерт	-9.92099
lo	-9.92108
▁Be	-9.92139
бра	-9.92197
▁тургузуунда	-9.92221
▁Сибирь	-9.92251
37	-9.92253
оглу	-9.92286
:1	-9.923
▁чүкче	-9.92304
▁президентизи	-9.92306
▁номчуур	-9.92317
▁материалдар	-9.92413
▁эртемденнер	-9.92449
▁Наталья	-9.92462
лек	-9.92487
▁(16	-9.92526
▁чонунуң	-9.92533
▁бак	-9.92565
1972	-9.92592
инче	-9.92673
мээң	-9.92681
▁хай	-9.92711
1976	-9.9277
sh	-9.92804
▁чогаалдар	-9.92818
чурт	-9.9288
дыры	-9.92895
ию	-9.92967
▁высоки	-9.92978
▁төлептиг	-9.92991
▁хүлээлге	-9.93005
тип	-9.93007
▁грек	-9.93012
▁сөстүң	-9.93019
ın	-9.93043
▁назылыг	-9.9306
туп	-9.93075
▁ордена	-9.93112
os	-9.93121
67	-9.93122
үнге	-9.93188
▁химик	-9.9324
71	-9.93254
ладыр	-9.93312
▁талазынче	-9.93337
▁оруу	-9.93352
47	-9.93369
▁1929	-9.93413
▁аң	-9.9344
▁хана	-9.93455
▁1979	-9.93462
▁кожуунунда	-9.93521
▁марта	-9.93625
▁Кижи	-9.93674
▁без	-9.93688
▁доп	-9.93707
▁1954	-9.93719
▁иштики	-9.93773
▁Туран	-9.93793
▁1951	-9.93837
дужаал	-9.9386
нии	-9.93867
▁айтырыг	-9.93871
▁1920	-9.9389
55	-9.93895
▁өң	-9.93906
▁1939	-9.93922
▁республики	-9.93939
▁эглип	-9.93939
▁сезен	-9.9394
Бистиң	-9.93966
▁Азии	-9.9399
32	-9.94007
ттынып	-9.94014
▁өл	-9.94019
оон	-9.9402
Биография	-9.94054
▁каапкан	-9.94064
lu	-9.94076
▁эдер	-9.94108
▁Вол	-9.94117
▁кудар	-9.94191
ях	-9.94212
▁чүдүлге	-9.94216
арт	-9.94218
▁чуртта	-9.94264
▁орган	-9.94284
Кижи	-9.9432
Үндезини	-9.94336
▁үзе	-9.94363
слов	-9.94442
кыс	-9.94465
34	-9.94531
▁(2009)	-9.94588
Чөөн	-9.9459
▁Рим	-9.94646
сеткил	-9.94666
▁санында	-9.94666
co	-9.94677
1982	-9.94717
▁редактору	-9.94758
1977	-9.94765
▁кир	-9.94773
▁ман	-9.94773
▁аарыы	-9.94799
▁солагай	-9.94808
):	-9.9481
▁Америка	-9.94815
▁оюнга	-9.94827
зо	-9.9483
▁июня	-9.94911
▁ажыттынган	-9.94932
▁Татьяна	-9.94934
▁тиилеп	-9.94954
▁уктуг	-9.94955
▁баштап	-9.94979
ргай	-9.94991
▁Дайын	-9.95034
уга	-9.95176
сть	-9.95206
▁1937	-9.95245
63	-9.95273
72	-9.95381
▁бөлүү	-9.95473
▁чурттакчылары	-9.95476
op	-9.95506
▁шерии	-9.95508
Ор	-9.95593
Александр	-9.95598
фильм	-9.95605
ni	-9.95607
▁ара	-9.95636
ard	-9.95646
тук	-9.95672
▁өөредилгезин	-9.9571
эвилел	-9.95739
раан	-9.95765
▁түрктер	-9.95799
ннын	-9.95823
зов	-9.9583
▁доозукчузу	-9.95891
▁күүседип	-9.95893
▁же	-9.95912
sı	-9.95929
35	-9.95954
▁удуп	-9.9599
ьян	-9.96171
▁Томск	-9.96188
▁үс	-9.96189
дуржулга	-9.96262
арының	-9.96263
▁Кан	-9.96297
ников	-9.96308
шак	-9.96378
джи	-9.96601
▁Өвүр	-9.96638
1978	-9.96701
тынын	-9.96703
дараа	-9.96798
▁Рус	-9.96825
ындыг	-9.96858
▁роль	-9.96879
▁очулдурган	-9.9688
▁степени	-9.9688
Шөлүлгелер	-9.96882
▁бижиттинген	-9.96887
▁шериглер	-9.96888
▁эжелеп	-9.96933
АР	-9.96937
▁кубогунуң	-9.96938
Те	-9.96972
ический	-9.96984
Хая	-9.97006
▁Го	-9.97022
ig	-9.97036
уур	-9.97037
рев	-9.97095
ттинген	-9.97096
▁Мал	-9.97106
▁чүүлдүң	-9.97137
sa	-9.97162
▁перед	-9.97181
lin	-9.97183
ланд	-9.97214
▁оор	-9.97214
▁Тр	-9.97386
унда	-9.97391
АН	-9.97399
▁чедер	-9.97435
▁кудумчу	-9.97438
▁тываларның	-9.97471
▁шаңнал	-9.9749
▁бижиктер	-9.97539
Кыдат	-9.97606
мин	-9.97695
үрээ	-9.97704
зындан	-9.97723
▁калбак	-9.97724
Арыг	-9.97727
дон	-9.97738
▁витамин	-9.97808
1966	-9.97824
▁каг	-9.97824
порт	-9.97862
бодун	-9.97871
▁комсомол	-9.9788
▁океан	-9.97886
▁октября	-9.97891
▁чүктүң	-9.97903
▁чарлаан	-9.97905
▁байыр	-9.9793
▁чугаазы	-9.97948
най	-9.97958
Петербургтуң	-9.97979
▁10-	-9.98005
▁1917	-9.98013
▁кайгамчык	-9.98041
▁сөзү	-9.98117
▁па	-9.98141
▁Париж	-9.98191
лажып	-9.98213
▁чүүлдерни	-9.98239
▁Ло	-9.98286
үлүк	-9.98305
53	-9.98397
▁хурал	-9.98415
▁Чадаана	-9.9844
▁Хөй	-9.98586
▁эгези	-9.98641
үт	-9.98676
чаагай	-9.98721
▁талада	-9.98731
▁Алексей	-9.98813
▁чыыр	-9.98874
▁исследования	-9.9889
Спортивны	-9.98893
▁чогаадып	-9.98894
48	-9.98902
Хаак	-9.98913
▁(2006)	-9.98914
▁режиссёр	-9.98917
Новости	-9.98918
▁угбазы	-9.98941
албан	-9.98954
▁демдеглеп	-9.9896
▁кезер	-9.9897
боду	-9.99074
▁парлап	-9.99095
▁орнунга	-9.99108
▁таварылга	-9.9911
▁газ	-9.99183
mo	-9.99286
▁үлегер	-9.99296
▁6-	-9.99322
вет	-9.99344
мит	-9.99373
эрги	-9.99385
▁чонга	-9.99424
▁тургузары	-9.9947
▁политика	-9.99551
▁1946	-9.9957
▁нов	-9.9959
▁кар	-9.99633
▁чылыг	-9.99644
1986	-9.99699
▁Октябрь	-9.99707
▁меге	-9.99709
▁көк	-9.99721
▁ажылдакчылары	-9.99801
▁пар	-9.99815
Кө	-9.99867
▁футболчу	-9.99875
1984	-9.99906
▁Отечественной	-9.99911
▁сактып	-9.99912
▁отделение	-9.99914
▁конкурс	-9.99917
Март	-9.99933
▁үеге	-9.99946
ттынар	-9.99972
▁Сат	-9.99993
▁ынакшыл	-9.99998
▁Бүрү	-9.99999
▁чүл	-10
▁Вер	-10.0001
▁Эртемнер	-10.0001
▁ажыктыг	-10.0002
▁4-	-10.0004
издат	-10.0004
аттың	-10.0005
▁кислота	-10.0009
▁Сен	-10.0009
▁крайның	-10.0013
эрге	-10.0018
▁объект	-10.0022
овые	-10.0029
▁чедиишкиннери	-10.0031
94	-10.0036
▁чаар	-10.0039
▁тайга	-10.0042
▁ноян	-10.0044
лдер	-10.0063
ine	-10.0065
үнү	-10.0065
▁Борис	-10.0069
фер	-10.0072
▁Нина	-10.0075
хин	-10.0077
ныр	-10.0077
▁оп	-10.0091
▁ылаңгыя	-10.0094
▁кезип	-10.0095
лардан	-10.0096
угу	-10.0097
▁дылга	-10.0105
▁тывар	-10.0106
▁сумузунга	-10.0112
ve	-10.0113
▁чемпионадының	-10.0118
▁Ге	-10.0122
үе	-10.0123
ью	-10.0142
▁тоожу	-10.0142
33	-10.0144
ңер	-10.0147
Түрк	-10.0152
▁дет	-10.0153
▁компания	-10.0158
▁Al	-10.0159
иезиниң	-10.0161
ынды	-10.0163
▁Алдын	-10.0163
▁университедин	-10.017
ec	-10.0171
СТ	-10.0172
▁композитор	-10.0174
кир	-10.0175
▁St	-10.0187
▁орнукшуткан	-10.0193
▁Кызылда	-10.0195
▁чогаалдарын	-10.0196
дүрген	-10.0197
▁совединиң	-10.0198
▁медали	-10.02
▁айыткан	-10.0201
▁кижилерге	-10.0201
Аът	-10.0203
▁An	-10.0204
джа	-10.0205
Май	-10.0209
билиг	-10.021
лись	-10.021
Солун	-10.0212
▁чемпионат	-10.0212
▁командири	-10.0212
ёв	-10.0212
▁библиотека	-10.0223
сам	-10.0226
Хүрээ	-10.0226
▁мар	-10.0232
́р	-10.0241
елин	-10.0256
▁өрт	-10.0256
Кино	-10.0256
▁облазы	-10.0259
▁матч	-10.0261
▁бу	-10.0267
▁университета	-10.0277
тели	-10.0278
▁дүн	-10.0279
▁Ө	-10.0283
▁шүлүк	-10.0288
нген	-10.0288
бин	-10.0288
▁дүк	-10.0291
▁суму	-10.0295
43	-10.0297
▁чурук	-10.0301
▁баг	-10.0304
▁бежен	-10.0304
▁ун	-10.0304
▁чуруп	-10.0304
▁(2005)	-10.0306
▁to	-10.0306
▁Төвүт	-10.0306
▁куш	-10.0312
▁каас	-10.0316
▁чугаала	-10.0321
1995	-10.0341
▁сиген	-10.0342
бург	-10.0344
▁өй	-10.0345
▁(17	-10.0346
▁мээң	-10.0346
лон	-10.035
▁алгы	-10.0353
▁Сам	-10.0354
▁хор	-10.0358
бейн	-10.0365
▁пөс	-10.0369
▁ажып	-10.0372
өгленип	-10.0376
mi	-10.0379
▁маргылдаага	-10.0382
ектор	-10.0387
▁Улустуң	-10.0387
▁педагог	-10.0388
аңаа	-10.0393
45	-10.0395
▁айтыр	-10.04
▁Кыргыс	-10.0401
1971	-10.0406
▁тозан	-10.0411
▁кедер	-10.0412
▁маадырлыг	-10.0422
▁1,	-10.0426
▁Март	-10.0427
▁Хемчик	-10.043
▁Se	-10.0432
▁Мирослав	-10.0437
▁херексел	-10.0438
▁араб	-10.0439
▁чагаа	-10.0441
▁бут	-10.0446
▁Кызылга	-10.0451
der	-10.0457
▁теория	-10.0462
1930	-10.0464
хөреңги	-10.0481
▁хемчээл	-10.0484
ca	-10.0485
▁чиде	-10.0486
хат	-10.0492
ber	-10.0497
▁35	-10.0498
▁государственно	-10.0507
уруг	-10.051
▁медалы	-10.0518
хоойлу	-10.0519
▁чадазын	-10.0522
▁Николаевна	-10.0523
▁хамаатызы	-10.0525
өрээн	-10.0526
▁чымчак	-10.0527
▁тон	-10.0533
▁22-	-10.0533
шим	-10.0534
едип	-10.0537
▁тюрк	-10.0538
▁Чамдык	-10.0539
ооловна	-10.0544
▁Дон	-10.0545
стала	-10.0545
өң	-10.0548
▁саң	-10.0551
угаан	-10.0559
▁дылдан	-10.0559
▁улусту	-10.0562
тивтиг	-10.0567
▁Алдай	-10.057
▁кижилерни	-10.057
▁бодаарга	-10.0571
83	-10.0572
100	-10.0573
Ном	-10.0574
▁чылгы	-10.0575
▁Тан	-10.058
Ş	-10.0582
▁аргазы	-10.0583
чаң	-10.0586
ического	-10.0591
маган	-10.0597
▁Le	-10.0602
улга	-10.0611
▁мынча	-10.0615
▁языков	-10.0625
мор	-10.0626
Хостуг	-10.0626
Чүгле	-10.0627
▁Велико	-10.0627
▁Васильевна	-10.0629
төл	-10.0632
стве	-10.0637
▁очулдурукчу	-10.0639
Саян	-10.0642
▁бодунга	-10.0646
▁1924	-10.0646
арь	-10.0646
▁Юрий	-10.0647
▁Моолдуң	-10.0656
▁1977	-10.0664
▁шимчээшкин	-10.0664
▁бодаар	-10.0671
▁эра	-10.0672
▁Үш	-10.0674
▁Республикада	-10.0675
▁кыдаттар	-10.0677
Тос	-10.0685
▁право	-10.0692
аал	-10.0692
▁тода	-10.0693
▁1927	-10.0693
▁документ	-10.0696
▁Бер	-10.0697
▁өскерли	-10.0711
▁ыт	-10.0716
99	-10.0723
▁күүседир	-10.0725
▁сокса	-10.0733
▁эскадрон	-10.0736
▁чергелештир	-10.0737
▁(2003)	-10.0739
нерниң	-10.0739
уушкун	-10.0739
Көдээ	-10.0743
İ	-10.0743
История	-10.0743
дель	-10.0748
▁турарын	-10.0751
▁Елена	-10.0754
Хо	-10.0766
руб	-10.0772
чүү	-10.0773
▁Ba	-10.0774
▁2004.	-10.0779
кал	-10.0781
▁+	-10.0782
65	-10.0791
▁проект	-10.0792
▁чч	-10.0796
▁адыр	-10.0797
уза	-10.08
▁назы	-10.0805
▁все	-10.0808
ических	-10.0809
▁Ma	-10.0809
төлү	-10.0812
▁...	-10.0815
▁гор	-10.0828
Эм	-10.0836
▁турарлар	-10.0836
инск	-10.0844
▁это	-10.0845
кул	-10.0846
▁шиңгээдип	-10.0847
▁шылгараңгай	-10.0849
▁шинчилелдер	-10.085
▁Ында	-10.085
▁352	-10.0853
жыышкын	-10.0853
▁каът	-10.0855
▁найысылалы	-10.0856
▁тиилекчизи	-10.0858
▁педагогическо	-10.0859
шүүгү	-10.0863
ларында	-10.0868
▁мая	-10.0868
1959	-10.0869
▁чо	-10.0875
Сарыг	-10.088
чор	-10.0885
▁керээ	-10.0889
▁мастер	-10.0896
▁девискээри	-10.0899
▁сугга	-10.0901
],	-10.0903
жин	-10.0907
▁пу	-10.0908
стол	-10.0918
▁артык	-10.092
▁тренер	-10.0921
тарлыг	-10.0927
▁дугайын	-10.0927
фин	-10.093
▁болганы	-10.0932
▁дүрзү	-10.0933
96	-10.0935
▁кеш	-10.0939
▁ортулуктар	-10.0942
▁музыка	-10.0946
ическая	-10.0949
боо	-10.095
▁килдис	-10.0954
рем	-10.0956
▁ѳѳрени	-10.096
▁история	-10.096
Профил	-10.0963
▁казып	-10.0963
▁1918	-10.0965
▁байдалга	-10.0968
▁эриинде	-10.0969
лгазы	-10.097
Бел	-10.0973
▁ылап	-10.0975
күрүне	-10.0977
61	-10.098
▁ортузунда	-10.0984
өй	-10.099
1948	-10.099
▁Украин	-10.0992
1961	-10.0996
▁9-	-10.0999
88	-10.1
▁Алдан	-10.1011
лериниң	-10.1019
ёл	-10.1026
Үндезин	-10.1026
тала	-10.1028
bo	-10.1029
Об	-10.103
кыр	-10.1032
тээн	-10.1033
▁көскү	-10.1034
акша	-10.1035
▁Япония	-10.1038
46	-10.1047
▁сөөгү	-10.1048
▁бажыңы	-10.1048
чулар	-10.1048
▁Me	-10.1054
▁сын	-10.1059
▁кожууннар	-10.1068
▁Национальн	-10.1069
▁хамааржып	-10.1073
▁көшкүн	-10.1073
▁аржаан	-10.1075
▁чырыы	-10.1076
▁олуруп	-10.1077
▁базым	-10.1078
аржы	-10.1078
соңга	-10.1079
▁Шо	-10.1079
▁аъттыг	-10.1087
хей	-10.1088
Чаңгыс	-10.1091
РСФСР	-10.1093
86	-10.1094
От	-10.1094
дим	-10.1098
эртем	-10.1098
өрт	-10.1099
12.	-10.11
эге	-10.1102
сты	-10.1103
Арт	-10.1105
фр	-10.111
▁шөл	-10.1111
▁чурум	-10.1112
▁чогаадыр	-10.1114
тат	-10.1116
▁Бор	-10.1125
▁хоойлузу	-10.1127
▁бараан	-10.1136
▁хөөн	-10.1137
▁Мен	-10.1149
den	-10.1152
аас	-10.1153
▁Андрей	-10.1154
кта	-10.1158
▁алтай	-10.116
▁ужун	-10.1163
тпас	-10.1163
тел	-10.1167
алгы	-10.1173
▁аразындан	-10.1179
агай	-10.118
лся	-10.118
Шаңнал	-10.1187
▁священн	-10.1188
▁генерал	-10.1189
▁работать	-10.1189
далай	-10.119
▁белек	-10.1194
▁ижин	-10.1198
ться	-10.12
чечек	-10.1202
▁курс	-10.1202
▁түңнел	-10.1205
ата	-10.1205
▁уйгур	-10.1207
▁1932	-10.121
Октябрь	-10.1211
▁соо	-10.1214
<	-10.1214
▁эртемниг	-10.1221
▁кам	-10.1224
▁чоннарының	-10.1226
Тур	-10.1229
▁чедирип	-10.1231
▁IV	-10.1233
▁1923	-10.1234
▁Сүт	-10.1236
1941	-10.1236
ишкин	-10.1238
▁августа	-10.1248
»;	-10.1248
▁тодарадыр	-10.1262
▁ажылдакчы	-10.1262
▁делгем	-10.1262
чурум	-10.1263
▁Үстүү	-10.1265
өөрү	-10.1266
▁1912	-10.1268
кызы	-10.1269
▁звено	-10.127
Во	-10.127
▁Александра	-10.1276
шаг	-10.128
▁Вера	-10.1282
▁Гор	-10.1284
▁Больш	-10.1291
!»	-10.1292
хой	-10.1299
▁улам	-10.13
▁будук	-10.1301
Январь	-10.1304
▁после	-10.1305
▁танцы	-10.1305
▁ынчалдыр	-10.1305
▁рубль	-10.1305
▁хемчээлдиг	-10.1306
его	-10.1307
▁ѳг	-10.1307
▁(2011)	-10.1307
▁талакы	-10.1307
▁Михайловна	-10.1308
▁доктаамал	-10.1309
▁фондузу	-10.1309
▁Петровна	-10.1313
▁12-	-10.1314
▁эптиг	-10.1315
Эртемден	-10.1317
арынга	-10.1332
▁Өг	-10.1334
▁коллектив	-10.1342
▁1928	-10.1342
▁клубка	-10.1345
▁таварыштыр	-10.1345
▁харын	-10.1346
▁ил	-10.135
тпаан	-10.1356
▁хая	-10.1359
rt	-10.1362
▁бул	-10.1363
▁материал	-10.1368
ОР	-10.1371
Ой	-10.1377
▁бижикти	-10.1377
▁Re	-10.138
▁статья	-10.1392
▁мөгелер	-10.1393
кчизи	-10.1395
▁Никола	-10.1396
▁башкылар	-10.1397
1921	-10.1401
▁үзү	-10.1418
▁штат	-10.1418
▁De	-10.1421
▁фа	-10.1421
ЛЕК	-10.1422
▁жизнь	-10.1422
▁өстүрер	-10.1422
▁время	-10.1422
ЕНИЯ	-10.1422
▁демдеглээн	-10.1422
▁for	-10.1424
▁бүткен	-10.1424
▁Türk	-10.1426
▁көстүр	-10.1429
▁баштаар	-10.143
▁In	-10.143
▁карт	-10.1438
▁Тувински	-10.1438
▁шилип	-10.144
Номнары	-10.144
Бажың	-10.1442
▁сыр	-10.1443
▁аары	-10.1447
▁Италия	-10.1452
XX	-10.1457
▁Бодунуң	-10.1458
рик	-10.1459
▁базар	-10.1464
▁Ачазы	-10.1465
▁30-	-10.1471
▁болуушкун	-10.1472
1987	-10.1472
▁боорга	-10.1474
▁научно	-10.1475
▁ж	-10.1476
▁народов	-10.1477
▁аразы	-10.1485
▁Хуралы	-10.1487
▁Архивировано	-10.1488
▁өөредир	-10.1489
▁Аз	-10.1492
▁(2008)	-10.1494
Дж	-10.1495
АО	-10.1495
▁было	-10.1497
▁үнелиг	-10.15
▁ужу	-10.1501
меге	-10.1509
▁физик	-10.151
▁хүннер	-10.1514
▁11-	-10.1514
зон	-10.1522
вей	-10.1525
Даш	-10.1526
Оон	-10.1528
▁Тур	-10.1529
▁хевирин	-10.1538
▁комплекс	-10.1541
Чедиишкиннери	-10.1541
é	-10.1541
▁эккелген	-10.1542
▁шынарлыг	-10.1542
рит	-10.1542
▁Александровна	-10.1547
▁сөөлүнде	-10.1551
▁аъттар	-10.1557
оор	-10.156
-7	-10.157
▁күрүнези	-10.157
кежик	-10.1571
bl	-10.1577
▁чазаа	-10.158
▁Авазы	-10.1591
час	-10.1593
2019	-10.1594
▁шаңналдары	-10.1596
бээн	-10.1597
зим	-10.1599
наашкын	-10.16
▁Пу	-10.16
▁АН	-10.1617
▁сай	-10.162
▁үнү	-10.162
ырадыр	-10.1621
bi	-10.1629
▁21-	-10.1632
▁кафедра	-10.1632
▁назын	-10.1635
Му	-10.164
▁саннар	-10.1644
▁База	-10.1644
▁дүжү	-10.1647
асс	-10.1661
▁ссылка	-10.1662
om	-10.1662
ланыр	-10.1663
үк	-10.1663
станция	-10.1664
▁белеткел	-10.1665
▁(2010)	-10.1665
▁катай	-10.1672
▁болду	-10.1677
ижин	-10.1677
▁ачызында	-10.1679
▁Өске	-10.1682
ist	-10.1683
▁баргаш	-10.1687
X	-10.1689
▁стар	-10.1691
▁1936	-10.1691
▁малчын	-10.1692
▁финал	-10.1694
▁Мари	-10.1699
▁анализ	-10.1699
зен	-10.1701
▁Роман	-10.1707
рын	-10.1707
▁байлак	-10.1709
▁шап	-10.1715
▁трудов	-10.172
▁Иванов	-10.1724
Эки	-10.1726
▁Пушкин	-10.1726
Сер	-10.1732
ey	-10.1735
▁немелде	-10.1742
▁Ур	-10.1745
▁драма	-10.1745
агы	-10.1751
▁төөгүзүн	-10.1751
▁ашак	-10.1752
өргү	-10.1752
tor	-10.1753
▁кѳ	-10.1754
ога	-10.1754
сем	-10.176
▁2011.	-10.1766
алба	-10.1769
▁аймаан	-10.1777
сүме	-10.1779
▁колдуу	-10.1783
▁доозуп	-10.1784
Хүреш	-10.1784
Аныяк	-10.1784
▁ээлеп	-10.1784
▁Тожу	-10.1785
▁Николаевич	-10.1786
▁таныжып	-10.1788
▁25-	-10.1788
үнүң	-10.1789
▁организациязы	-10.1789
▁чыткан	-10.1793
▁Ленинградтың	-10.1793
▁энергия	-10.1793
есть	-10.1795
▁8-	-10.1802
өлү	-10.1802
ür	-10.1804
▁бүзүрел	-10.1809
▁шажынчы	-10.181
▁народ	-10.181
▁1952	-10.181
Ат	-10.1813
утту	-10.1823
тыны	-10.1824
нан	-10.1829
дина	-10.1832
суд	-10.1835
▁ынча	-10.1842
1975	-10.1843
ev	-10.1844
▁Ховалыг	-10.1848
▁1921	-10.1849
Испания	-10.1849
Республиканың	-10.1855
▁Чу	-10.186
демир	-10.1861
1938	-10.1862
▁авто	-10.1876
▁Пи	-10.1882
▁диссертация	-10.1891
▁домак	-10.1892
▁дыңнаар	-10.1896
Чон	-10.1898
чылар	-10.19
zi	-10.1902
▁Нам	-10.1905
▁Бурятия	-10.1905
▁ТЫВА	-10.1907
▁вторая	-10.1907
Кудумчулары	-10.1908
▁Онза	-10.1916
шевер	-10.1919
▁арат	-10.1919
▁училищезин	-10.192
▁белеткээр	-10.1922
▁кадай	-10.1925
▁ары	-10.1929
вил	-10.193
che	-10.1938
▁чуг	-10.1946
эги	-10.1949
шен	-10.1949
есс	-10.1954
▁мерген	-10.196
Хөй	-10.1962
▁Тана	-10.1963
херексел	-10.1965
чечен	-10.1966
▁театры	-10.1968
▁ырлаар	-10.1969
Аңгы	-10.197
▁Хам	-10.1973
▁сөстерни	-10.1973
ица	-10.1975
▁ус	-10.198
ужур	-10.198
▁каап	-10.1986
▁санал	-10.1996
СК	-10.1996
▁15-	-10.1997
барыын	-10.1998
▁шыдыраа	-10.2001
▁КЕ	-10.2002
▁ыдык	-10.2006
▁работ	-10.2008
▁карьеразын	-10.2011
▁математика	-10.2013
Мал	-10.2013
▁Гер	-10.2015
▁дүжүп	-10.2017
▁хере	-10.2019
1927	-10.2025
▁эъди	-10.2028
▁Урал	-10.2031
ε	-10.2032
ЧЫЛ	-10.2032
едоступная	-10.2032
▁өстүрүп	-10.2032
Декабрь	-10.2032
▁хүрежи	-10.2032
▁период	-10.2032
▁тодарадып	-10.2033
su	-10.2034
▁войны	-10.2034
▁(1992)	-10.2034
Библиография	-10.2034
▁(2004)	-10.2035
Кор	-10.2037
▁латин	-10.2039
▁Екатерина	-10.204
▁диалект	-10.2044
дарга	-10.2046
▁20-	-10.2047
▁чаза	-10.2047
НИН	-10.2052
одар	-10.2057
▁қа	-10.2059
хара	-10.206
▁ужурга	-10.2061
База	-10.2068
▁дыңнап	-10.2075
▁шил	-10.2076
▁адаанда	-10.2076
▁суу	-10.2077
▁бурганнар	-10.2082
кончуг	-10.2088
шуут	-10.2092
▁Сылдыс	-10.2096
0%	-10.2099
▁фольклор	-10.2108
▁Али	-10.2112
▁Ch	-10.2112
▁хаара	-10.2119
ah	-10.2127
▁клуву	-10.2131
▁1926	-10.2147
▁Ри	-10.2148
ную	-10.215
io	-10.2151
шынар	-10.2157
ЛОПСА	-10.2159
▁ТУВЕ	-10.2159
▁территори	-10.2159
▁ЧАҢ	-10.2159
▁сарлык	-10.2159
▁хавы	-10.2159
▁(2001)	-10.216
яз	-10.2162
▁Иванович	-10.2166
▁ойнакчызы	-10.2169
▁кежээ	-10.217
▁1922	-10.2172
ылды	-10.2174
▁бер	-10.2177
▁байдалын	-10.2179
▁кожуунда	-10.2181
Ниити	-10.2198
▁русско	-10.2199
▁олимпий	-10.2199
огу	-10.2201
▁казах	-10.2202
ile	-10.2207
▁дугаарында	-10.2211
ьев	-10.2216
Күрүне	-10.2219
▁чог	-10.2221
хомуда	-10.2223
▁академия	-10.2227
▁өрээл	-10.2228
1943	-10.2229
1965	-10.223
ga	-10.2231
ly	-10.2232
нмас	-10.2235
1963	-10.2238
1988	-10.2238
▁чанып	-10.2241
▁7-	-10.2241
▁чеми	-10.2243
хон	-10.2252
шаандагы	-10.2254
ости	-10.2258
▁ёзулуг	-10.2258
зинден	-10.2261
▁дус	-10.2263
▁эн	-10.2263
▁Иргит	-10.2264
бүзүре	-10.2272
кам	-10.2277
▁четки	-10.2279
▁уч	-10.2282
▁годы	-10.2284
нарга	-10.2284
Февраль	-10.2287
̊	-10.2287
▁РАСТ	-10.2287
▁издательство	-10.2287
▁апреля	-10.2287
▁киржир	-10.2288
11.	-10.2289
▁сеткилдиг	-10.229
▁Архимед	-10.229
▁дарга	-10.2291
▁турнир	-10.2293
сын	-10.2293
▁чөвүлели	-10.2294
▁Ы	-10.2295
▁харлаан	-10.2297
▁ынаар	-10.2299
▁чидир	-10.2299
▁Ком	-10.23
▁үжүктер	-10.23
▁редактор	-10.2302
▁сагыыр	-10.2303
▁ыяштар	-10.2304
lan	-10.2308
▁правда	-10.2313
▁ужуп	-10.2319
Алтай	-10.2321
▁хүнүнде	-10.2322
лде	-10.2323
анаа	-10.2327
▁стол	-10.2327
сал	-10.2329
▁чыыжының	-10.2332
она	-10.2332
инниң	-10.2333
▁Тес	-10.2335
ers	-10.2341
▁диплом	-10.2342
▁чогаалчызы	-10.2347
▁өртээ	-10.235
▁эрик	-10.2351
▁ас	-10.2352
▁культур	-10.2355
1957	-10.236
▁1933	-10.236
ченко	-10.2362
1979	-10.2363
аътты	-10.2366
чорудулгазын	-10.2368
▁Культура	-10.237
ание	-10.2377
▁идик	-10.2378
▁программа	-10.2378
нчыг	-10.238
▁төре	-10.2385
аст	-10.2394
▁(2	-10.2401
лээш	-10.2403
Золот	-10.241
▁президент	-10.2411
чада	-10.2411
▁Сталин	-10.2411
▁ашка	-10.2413
ической	-10.2413
▁развития	-10.2417
▁оркестр	-10.2417
▁среди	-10.2418
▁ферма	-10.2418
▁чидиг	-10.2419
▁Хан	-10.2421
мба	-10.2423
▁мол	-10.2423
1960	-10.2424
▁назынында	-10.2425
▁13-	-10.2426
▁Тока	-10.2428
▁географически	-10.243
ево	-10.2435
▁эргелели	-10.2438
▁Эн	-10.2439
Өл	-10.244
▁Ортаа	-10.2442
агаар	-10.245
▁(1	-10.2461
▁b	-10.2468
▁2013.	-10.2471
▁буддизм	-10.2471
ску	-10.2475
▁Севек	-10.2478
спор	-10.2481
tion	-10.2483
Севек	-10.2486
Башкортостан	-10.2487
▁татар	-10.2489
97	-10.249
▁хөрек	-10.2503
▁мергежили	-10.2505
▁Лев	-10.2505
▁эди	-10.2506
gen	-10.2508
емниг	-10.2514
▁чурттуң	-10.2524
▁хилинчек	-10.2527
чаш	-10.2531
сар	-10.2531
лама	-10.2533
ver	-10.2536
▁1919	-10.2539
1929	-10.254
▁черинде	-10.2543
▁төөгүзүнде	-10.2544
▁дашты	-10.2546
ategory	-10.2548
АРСТВЕННЫ	-10.2548
▁чүгүнде	-10.2548
▁хамаарышпас	-10.2549
▁Крым	-10.2549
ания	-10.255
▁сөөктүң	-10.255
▁киргеш	-10.255
изация	-10.255
▁(2014)	-10.2553
by	-10.2554
▁турбаан	-10.2554
▁чоннарның	-10.2555
При	-10.2556
▁бедии	-10.2583
▁Сибирьниң	-10.2589
дык	-10.2591
дия	-10.2592
69	-10.2596
▁1934	-10.2597
ээшкин	-10.2603
▁Ян	-10.261
▁пе	-10.2613
адып	-10.2615
▁женщин	-10.2624
ran	-10.2624
Хову	-10.2625
▁Чап	-10.2627
▁кыдыында	-10.2633
чылда	-10.2634
1949	-10.2635
тырган	-10.264
▁тайбың	-10.2641
ннар	-10.2643
▁Бичии	-10.2643
Та	-10.2647
1942	-10.2648
ho	-10.265
▁ниитизи	-10.265
▁дылдарда	-10.2651
▁меңээ	-10.2656
өре	-10.2659
дыышкын	-10.2665
сарыг	-10.2667
бойдустуң	-10.2668
рад	-10.2669
▁ажыдар	-10.267
Ге	-10.267
▁бодалы	-10.2675
аттышкан	-10.2675
Бил	-10.2679
▁тааржыр	-10.2682
▁шилчээн	-10.2682
▁өөренген	-10.2683
▁(1999)	-10.2685
саар	-10.2688
▁(3	-10.2688
орукту	-10.2689
атты	-10.269
өк	-10.2691
89	-10.2692
▁парлаан	-10.2693
ление	-10.2694
▁Мон	-10.2694
вой	-10.2695
▁Бии	-10.2704
▁өскен	-10.2709
▁ниитилелиниң	-10.2712
▁херексели	-10.2714
чел	-10.2714
▁черже	-10.2716
́н	-10.2716
кчилер	-10.2717
▁адар	-10.272
оюн	-10.2721
▁дайынчызы	-10.2721
▁тиилелге	-10.2725
78	-10.2726
Кур	-10.2727
▁камгалакчы	-10.273
сай	-10.2735
▁медээлер	-10.2737
▁билиг	-10.2738
▁Хурал	-10.2743
▁утказын	-10.2745
ктаар	-10.2749
ылган	-10.2754
Мөге	-10.2754
тырар	-10.2757
▁ойна	-10.2758
культура	-10.276
Герои	-10.2762
Хүн	-10.2768
▁директор	-10.2769
▁Pa	-10.277
тынар	-10.2777
▁X	-10.2783
▁актриса	-10.2792
үрер	-10.2794
ov	-10.2795
▁ог	-10.2796
Соңгу	-10.28
▁века	-10.281
лдарлыг	-10.2812
▁Украина	-10.2812
་	-10.2817
Ноябрь	-10.2817
▁номинация	-10.2817
шөйүндү	-10.2817
▁хакас	-10.2817
▁бурят	-10.2817
▁белеткеп	-10.2817
▁үшкү	-10.2819
▁(2000)	-10.2819
▁(2013)	-10.282
▁барымдаалап	-10.2823
▁тыптыр	-10.2824
▁азырап	-10.2828
▁Ge	-10.2829
кежиктиг	-10.2832
документалдыг	-10.2834
удар	-10.2839
лгези	-10.2839
▁Ленина	-10.2842
▁үжүү	-10.2844
▁Россияда	-10.2844
ника	-10.2845
хал	-10.2846
▁тудары	-10.2849
▁La	-10.2849
Пер	-10.2849
▁2020	-10.2851
▁составынга	-10.2857
▁амыр	-10.2861
|1	-10.2863
▁14-	-10.2863
▁үезин	-10.2866
сава	-10.2866
херекти	-10.2869
▁Шын	-10.2872
кун	-10.288
▁анай	-10.288
▁США	-10.2884
ттуруп	-10.2892
▁губерниязы	-10.2898
овых	-10.2902
Монгуш	-10.2904
чырык	-10.2905
▁барымдаалар	-10.2906
▁İ	-10.2909
ke	-10.2909
org	-10.2915
мя	-10.2918
реб	-10.2926
▁сеткили	-10.2927
1955	-10.2928
▁науки	-10.2932
1967	-10.2936
▁ховулар	-10.2937
▁ырызы	-10.2938
▁кургаг	-10.2939
▁гектар	-10.294
ыңар	-10.2943
▁История	-10.2945
янь	-10.2949
орт	-10.2954
▁ажааган	-10.2954
▁тургузукчузу	-10.2954
▁каттыжыышкыны	-10.2954
▁уламчылаан	-10.2954
▁июля	-10.2954
▁Васильевич	-10.2954
мыш	-10.2954
▁тоолчургу	-10.2955
▁̆	-10.2956
▁му	-10.296
▁(1995)	-10.296
▁көргеш	-10.296
▁амыдыралы	-10.2961
үре	-10.2962
▁Чаш	-10.2968
рап	-10.2969
▁Совета	-10.2971
▁чеже	-10.2972
▁бижээни	-10.2975
▁ылгалып	-10.2976
▁f	-10.2981
бирги	-10.2981
▁бажыңынга	-10.2983
▁Аль	-10.2994
▁эштери	-10.3007
▁Истанбул	-10.3012
▁чедирген	-10.3013
▁проф	-10.3014
▁Во	-10.3014
ыргак	-10.3014
жур	-10.3015
esi	-10.3018
өртек	-10.3021
▁Чеди	-10.3021
сеп	-10.3029
ѳѳ	-10.303
▁Школа	-10.3032
орд	-10.3033
Ро	-10.3033
чев	-10.3034
кий	-10.3039
▁уругларга	-10.3044
▁термин	-10.3047
инчи	-10.3055
▁Уруг	-10.3057
▁оът	-10.3061
▁<	-10.3061
руп	-10.3064
силер	-10.3065
▁нем	-10.3066
▁планеталар	-10.3066
▁чылдары	-10.3067
ачазы	-10.3067
▁Ирина	-10.3068
1937	-10.307
Сам	-10.3071
1932	-10.3073
▁чылдыг	-10.3074
▁город	-10.3075
▁өршээ	-10.3076
анд	-10.3081
▁үлүг	-10.3081
овская	-10.3085
▁Преми	-10.309
ические	-10.3091
Хөөмей	-10.3093
Официальны	-10.3093
▁сүдү	-10.3093
▁парлаттынган	-10.3093
Рассадин	-10.3094
▁агып	-10.3094
▁дүгү	-10.3095
UFC	-10.3097
▁томуйлаан	-10.3097
балыг	-10.3098
▁Tarihi	-10.3103
▁клубтуң	-10.3103
▁чизези	-10.3103
▁сцена	-10.3103
ik	-10.3105
▁стиль	-10.3105
▁люб	-10.3106
▁Суг	-10.3109
▁Президиумунуң	-10.3113
▁бажында	-10.3114
чүк	-10.3115
▁тулчуушкун	-10.3118
текст	-10.3124
лось	-10.3128
хем	-10.3129
▁литературы	-10.3129
▁даштар	-10.3137
▁федерал	-10.3137
▁Пикассо	-10.3137
▁артар	-10.314
очно	-10.3143
Древн	-10.3144
▁канал	-10.3145
▁карта	-10.3146
▁Тар	-10.315
▁чүрек	-10.3154
тайылбырлыг	-10.3155
кө	-10.317
▁буга	-10.3178
tr	-10.3179
▁59	-10.3182
▁кем	-10.3183
ЕР	-10.3184
Бүгү	-10.3192
Санкт	-10.3192
лий	-10.3194
▁Ново	-10.3195
tur	-10.3196
▁сем	-10.3197
▁Ростов	-10.32
▁дилээн	-10.3202
▁аргалар	-10.3203
▁Кады	-10.3203
▁процесс	-10.3206
юк	-10.3213
▁херекселдери	-10.3214
▁доора	-10.3214
1968	-10.3217
▁чогаалчылары	-10.3217
Ла	-10.3218
▁эрткенде	-10.3218
эк	-10.3223
ктың	-10.3223
төлевилел	-10.3231
▁хуусаа	-10.3231
▁чарлы	-10.3232
вышаан	-10.3233
َ	-10.3233
Үнүштер	-10.3233
▁Никулин	-10.3233
▁украин	-10.3233
▁Михайлович	-10.3234
▁тургустунуп	-10.3234
бажы	-10.3234
Сүрүң	-10.3234
▁Фёдоровна	-10.3235
Мээң	-10.3236
жап	-10.3236
tu	-10.324
▁биология	-10.3241
саарылга	-10.3241
Базыр	-10.3241
▁1935	-10.3243
▁жанр	-10.3244
чогаал	-10.3249
▁сорулга	-10.3252
▁вклад	-10.3252
▁чедиишкин	-10.3253
ell	-10.3253
▁салгалы	-10.3253
▁дөзү	-10.3253
▁төвүнүң	-10.3253
Географ	-10.326
▁херелдениишкин	-10.326
үз	-10.3264
илась	-10.3264
▁тип	-10.3269
ін	-10.3269
▁делегейге	-10.3273
▁сывы	-10.3277
ИН	-10.3279
Шөлү	-10.3282
иңер	-10.3285
▁ава	-10.3285
▁Ka	-10.3286
▁Ha	-10.3288
▁куда	-10.3289
гир	-10.329
үзү	-10.3295
▁чижек	-10.3304
▁дел	-10.331
аттыг	-10.3312
▁Алдар	-10.3315
ГУ	-10.3315
▁организм	-10.3315
▁үүле	-10.3316
▁яамызы	-10.3316
▁бажыңнар	-10.3319
сия	-10.3321
▁Байыр	-10.3322
хана	-10.3322
▁Сина	-10.3324
▁хүлээ	-10.3324
турар	-10.3329
▁барык	-10.3332
▁Казахстанның	-10.3333
he	-10.3334
ts	-10.3337
математика	-10.3338
▁альбом	-10.3347
▁шары	-10.3348
цов	-10.3349
1969	-10.3353
▁бажынга	-10.3359
1964	-10.3363
▁шынары	-10.3364
шил	-10.3364
▁(1996)	-10.3365
do	-10.3368
▁борьбе	-10.3376
▁күүсеткен	-10.3376
▁центнер	-10.3376
▁эргелекчилеп	-10.3377
жуань	-10.3378
▁(1986)	-10.3378
Main	-10.3381
▁Президентизи	-10.3382
▁албас	-10.3382
ачы	-10.3384
шкаш	-10.3387
▁калбаа	-10.3387
▁чалаан	-10.3389
▁хөйү	-10.3389
▁чыдыр	-10.3393
▁харыылаар	-10.3397
тки	-10.3397
▁Делегейниң	-10.3403
▁суурунга	-10.3403
кат	-10.3404
дил	-10.3413
и́	-10.3414
сли	-10.3416
▁оюннарынга	-10.3423
▁1916	-10.3426
▁техника	-10.3432
▁чыт	-10.3436
▁карты	-10.3437
▁дүне	-10.3438
▁чаны	-10.3439
утка	-10.344
▁Даг	-10.3442
▁би	-10.3448
▁перво	-10.345
Ам	-10.3456
▁таварылгада	-10.3458
▁үүрмек	-10.3461
▁Омск	-10.3464
▁ылгал	-10.347
▁аңчы	-10.3488
▁талазынга	-10.3491
▁иви	-10.3493
▁сөзүн	-10.3493
▁академиязын	-10.3493
qu	-10.3497
▁Bir	-10.3498
Ондар	-10.3498
▁шинчи	-10.3503
pp	-10.3504
ёва	-10.3505
вейн	-10.3513
▁Красно	-10.3519
▁үүлгеди	-10.3521
Ь	-10.3521
▁факультет	-10.3521
▁хозяйства	-10.3521
▁россия	-10.3521
▁үндезилекчизи	-10.3521
▁япон	-10.3522
▁шинчилекчизи	-10.3522
▁аттар	-10.3523
Молод	-10.3525
▁хат	-10.3525
▁2008.	-10.3527
мес	-10.3532
▁салдары	-10.3533
хор	-10.3536
эмчи	-10.3536
1936	-10.3537
▁2017.	-10.3538
▁2014.	-10.3539
Бар	-10.3539
▁алдынган	-10.354
▁МКУ	-10.3541
▁кезектер	-10.3543
ям	-10.3546
▁чазы	-10.3551
▁сорулгазы	-10.3552
▁орар	-10.3553
цкий	-10.3553
▁ажыглаары	-10.3557
▁зал	-10.3563
▁музык	-10.3563
79	-10.3563
▁элемент	-10.3566
1950	-10.3568
олар	-10.3568
▁болурун	-10.357
▁монография	-10.3571
огун	-10.3575
▁Улус	-10.3576
▁математик	-10.3582
▁Президент	-10.3583
▁кыр	-10.3584
сыг	-10.3587
▁бөлүктер	-10.3588
куль	-10.3589
муң	-10.359
ации	-10.3591
1924	-10.3592
▁архив	-10.3592
▁девискээр	-10.3593
▁Фи	-10.3593
▁шола	-10.3593
штыр	-10.3598
халап	-10.36
▁чемпионаттары	-10.3602
▁d	-10.3603
▁планета	-10.3607
▁чуур	-10.3617
▁черден	-10.3626
▁профессионал	-10.3626
алдары	-10.3627
▁сырый	-10.3627
▁килдизи	-10.3629
▁деңнел	-10.363
бис	-10.3635
▁три	-10.3636
бижик	-10.364
аннар	-10.3641
▁мөөрей	-10.3646
ot	-10.3651
▁демдектери	-10.3653
▁Петр	-10.3655
▁регион	-10.3655
тре	-10.366
бур	-10.366
оогунда	-10.3664
ӱ	-10.3668
▁илереткен	-10.3668
▁цирк	-10.3669
▁Чүге	-10.3669
▁эскерип	-10.367
▁долузу	-10.3672
харыысалга	-10.3676
▁ажыдып	-10.3677
▁өлүр	-10.3678
Барселона	-10.3681
говор	-10.3684
▁турбас	-10.3684
рас	-10.3684
куш	-10.3686
▁ёзулал	-10.3687
▁философ	-10.3687
удур	-10.369
▁Орден	-10.3693
▁друг	-10.3696
ыраа	-10.3696
Ман	-10.3698
▁хир	-10.3708
▁Чон	-10.371
дек	-10.3711
▁археолог	-10.3713
рот	-10.3715
вээн	-10.3716
Чаш	-10.3725
куруг	-10.3733
»).	-10.3733
▁Марс	-10.374
▁чугаалаарга	-10.3742
▁Дан	-10.3743
ерс	-10.3743
▁Тере	-10.3743
АЗ	-10.3744
▁күзүн	-10.3751
▁кавалери	-10.3753
ники	-10.3756
чон	-10.3762
▁Тамара	-10.3767
▁Ыдыктыг	-10.3767
▁23-	-10.3768
du	-10.3776
▁ядыы	-10.3776
▁оңгар	-10.3776
дес	-10.3778
▁системазы	-10.3781
Өске	-10.3794
овед	-10.3798
ейти	-10.3801
▁шагның	-10.3803
дом	-10.3803
▁нояннар	-10.3806
ыжы	-10.3807
▁мед	-10.3809
▁адаанга	-10.3809
Эрги	-10.3811
акта	-10.3812
}	-10.3817
урар	-10.3817
ا	-10.3818
▁итальян	-10.3818
итет	-10.3818
▁рядовой	-10.3818
▁дургаар	-10.3818
▁Калинин	-10.3819
После	-10.382
▁(1998)	-10.382
воз	-10.3821
▁сектору	-10.3823
▁суглар	-10.3824
▁дугаары	-10.3825
▁удурланыкчы	-10.3826
автономнуг	-10.3827
▁эштиг	-10.3828
өңнү	-10.3829
▁херекселдер	-10.3829
кайы	-10.3832
▁аарыглары	-10.3832
ажыр	-10.3837
1947	-10.384
▁салдарлыг	-10.3841
▁Кам	-10.3844
▁Тесла	-10.3844
▁Эрзин	-10.3845
▁чыыш	-10.3847
▁романы	-10.3848
кция	-10.3849
▁дылдарның	-10.3852
шев	-10.3852
▁300	-10.3854
aş	-10.3854
Аас	-10.386
Театр	-10.3865
▁билиглер	-10.3867
▁Mo	-10.387
▁чуртунга	-10.387
▁аарып	-10.3872
ex	-10.3874
▁малдың	-10.3875
▁мин	-10.3876
▁Вал	-10.3876
▁Доржу	-10.3876
▁театра	-10.3883
▁сад	-10.3886
▁Москвада	-10.3887
сыр	-10.3889
Хаан	-10.3891
▁2009.	-10.3892
өстү	-10.3894
▁болганнар	-10.3895
▁(10	-10.3896
ологии	-10.3902
▁24-	-10.3903
▁облазының	-10.3904
ck	-10.3907
▁салбырын	-10.3909
▁орта	-10.3915
▁49	-10.3916
куп	-10.3916
▁место	-10.3917
елла	-10.3925
▁чес	-10.3933
айгы	-10.3933
▁(2012)	-10.3936
▁октаар	-10.3941
▁сек	-10.3943
▁ажыглал	-10.3945
▁Урянхай	-10.3947
тускай	-10.3951
чамдык	-10.3953
dan	-10.3954
тудуг	-10.3956
▁2001.	-10.3957
▁Ев	-10.3958
▁ойнааш	-10.3963
1917	-10.3963
кылаш	-10.3964
онза	-10.3966
▁Orhun	-10.3969
ă	-10.3969
Хүндүлел	-10.3969
▁кылдынган	-10.3969
шокар	-10.3969
▁йөрээл	-10.397
ушка	-10.3975
▁Чурттакчы	-10.3975
▁чурукчулар	-10.3976
1956	-10.3981
▁тыртып	-10.3982
▁чорааннар	-10.3982
▁химия	-10.3984
▁доң	-10.3986
диш	-10.399
унд	-10.3994
чаңчылдар	-10.3998
Узун	-10.3999
Мерген	-10.3999
▁чогаалы	-10.4003
тюркских	-10.402
▁55	-10.4023
▁1914	-10.4024
▁окта	-10.4024
даң	-10.4024
▁Тувинск	-10.4026
ттырган	-10.403
▁Ar	-10.403
▁над	-10.403
▁губерния	-10.4031
▁улуу	-10.4032
▁1913	-10.4035
▁ортулук	-10.4036
иттер	-10.4037
1940	-10.4039
сеткили	-10.4039
▁Шаанда	-10.4054
▁27-	-10.4055
овод	-10.407
▁уш	-10.4072
▁Сал	-10.4075
▁мир	-10.4079
никова	-10.4079
▁Ше	-10.4081
▁ойнакчы	-10.4087
XIII	-10.4091
▁келгеннер	-10.4091
▁оруун	-10.4094
ған	-10.4096
▁шала	-10.4104
▁хою	-10.4107
Дараазында	-10.4108
шериг	-10.4109
Кандыг	-10.4109
▁ад	-10.411
бөлүк	-10.4111
▁Фёдор	-10.4121
Заслуженны	-10.4123
â	-10.4123
▁обратно	-10.4123
▁сентября	-10.4123
▁трудиться	-10.4123
*	-10.4123
▁Лондон	-10.4123
▁суксун	-10.4123
▁Восток	-10.4123
▁торгу	-10.4123
чөптүг	-10.4124
▁миф	-10.4124
▁Даргазы	-10.4125
▁буянныг	-10.4125
▁география	-10.4129
идегел	-10.413
ажыы	-10.4132
1945	-10.4132
Спортчу	-10.4132
1958	-10.4133
отту	-10.4135
пен	-10.4142
▁чурттуг	-10.4144
жү	-10.4144
вели	-10.4145
МО	-10.4145
ға	-10.4149
▁демдеглээр	-10.4152
▁хандыр	-10.4157
▁чазап	-10.4158
▁хоругда	-10.4161
▁'	-10.4164
Тывалар	-10.4166
▁аарыглар	-10.4166
ment	-10.4167
▁таныш	-10.4169
бей	-10.4174
▁опера	-10.4177
nd	-10.4177
▁боттарын	-10.4178
▁кадар	-10.4179
▁хураган	-10.4183
пай	-10.4183
▁слог	-10.4184
Крас	-10.4187
Чурт	-10.4188
1922	-10.4188
▁игр	-10.4192
▁човулаң	-10.4193
поль	-10.4199
Кыс	-10.4199
▁Бурятияның	-10.4202
▁ради	-10.4202
ивис	-10.4204
▁зна	-10.4206
▁2007.	-10.4207
▁кежигүн	-10.4214
▁Горький	-10.4215
▁айтырыглары	-10.4217
ологтуг	-10.4218
▁үелерде	-10.422
сеткилин	-10.4221
нем	-10.423
ьер	-10.4231
▁чоокшула	-10.4231
төлүн	-10.4233
▁спорта	-10.4238
▁номчу	-10.424
▁минут	-10.4245
ссия	-10.4245
▁Соведи	-10.4249
▁электри	-10.4251
▁канчап	-10.4252
мазы	-10.426
Херээженнер	-10.4264
Википедия	-10.4268
▁уйгурлар	-10.4268
өөредилге	-10.4272
▁музейи	-10.4275
▁центр	-10.4276
▁Почёта	-10.4279
▁хозяйстве	-10.4279
▁элээди	-10.4279
▁санаттынып	-10.4279
▁чурулга	-10.4279
хүрең	-10.4279
▁вопрос	-10.4279
▁развитие	-10.4279
▁четпээн	-10.4279
▁еврей	-10.4279
килең	-10.428
Йорк	-10.428
сыгыт	-10.428
Знак	-10.4282
▁(1991)	-10.4282
▁(2002)	-10.4283
▁лексик	-10.4292
▁бижимел	-10.4294
түңнелдиг	-10.4297
▁Но	-10.4298
▁кыза	-10.4301
▁политик	-10.4302
▁ужуру	-10.4306
обра	-10.4308
1962	-10.431
лекция	-10.4313
▁чарар	-10.4314
оң	-10.4316
▁каржы	-10.4318
кадай	-10.4319
Государственн	-10.4322
▁деңнелге	-10.4323
дум	-10.4323
өжү	-10.4323
бажын	-10.4324
ными	-10.4325
▁16-	-10.4326
Чеди	-10.4326
берг	-10.4328
ОВ	-10.4329
НИ	-10.4337
▁алыышкын	-10.4338
▁школалар	-10.434
▁дилээр	-10.434
альный	-10.4341
актив	-10.4342
штыг	-10.4342
1935	-10.4352
Саг	-10.4354
▁долган	-10.4362
▁черлерде	-10.4363
▁студент	-10.4368
▁өөредиг	-10.4368
өш	-10.4375
▁номну	-10.4381
:00	-10.4382
ung	-10.4386
▁народно	-10.4388
▁саазын	-10.439
▁маргылдаалар	-10.4398
Тей	-10.4399
▁хоорайже	-10.4401
башкы	-10.4403
эп	-10.4406
Кон	-10.4408
▁Нью	-10.441
Чемпион	-10.441
▁хайгаарал	-10.4411
Белдир	-10.4421
▁бээри	-10.4421
овый	-10.4423
▁дылын	-10.4425
▁хүнде	-10.4432
чуртталга	-10.4433
Оюн	-10.4436
{	-10.4437
▁тудуш	-10.4438
Дзюдо	-10.4438
▁хайындырар	-10.4438
from	-10.4438
▁Yayınları	-10.4438
▁бызаа	-10.4439
▁где	-10.444
▁нептерээн	-10.444
Чуваш	-10.444
ским	-10.4441
▁(2015)	-10.4441
▁төөгүлүг	-10.4442
▁чугаалажыр	-10.4443
▁рекорд	-10.4443
төөгү	-10.445
териниң	-10.4454
боттарын	-10.4455
1951	-10.4458
▁хоста	-10.446
▁шыда	-10.4463
▁удуртукчу	-10.4466
▁Азияның	-10.4467
▁хууда	-10.4473
▁мы	-10.4479
▁фестиваль	-10.4479
Эл	-10.4479
nin	-10.448
▁2005.	-10.448
▁хуралы	-10.4486
▁женско	-10.4486
▁доктаадыр	-10.4493
роман	-10.4494
Силер	-10.4497
сөс	-10.4498
нос	-10.4499
▁500	-10.45
pe	-10.4508
аңнаар	-10.4512
бөлүктүң	-10.4513
дүп	-10.4519
хары	-10.452
▁труда	-10.4521
▁İstanbul	-10.4522
▁Mar	-10.4524
стон	-10.4528
Үе	-10.4531
Тан	-10.4536
сель	-10.4536
▁тыпкан	-10.4538
▁Do	-10.4539
▁m	-10.4539
▁өттүр	-10.4544
▁дош	-10.4546
▁шуптузун	-10.4552
▁хоорайы	-10.4553
▁Наадым	-10.4554
ехниктиг	-10.4558
▁буруу	-10.4562
▁17-	-10.4563
59	-10.4577
▁шимче	-10.4578
▁Турция	-10.4578
▁дески	-10.458
▁чемнер	-10.4584
идтер	-10.4584
▁суурда	-10.4586
▁хүлээлгезин	-10.4589
дус	-10.4593
▁СО	-10.4593
Сан	-10.4596
Хөгжүм	-10.4599
▁километр	-10.4599
▁редакторлааны	-10.4599
Мөөрей	-10.4599
▁Англия	-10.46
▁кажык	-10.46
Будда	-10.46
▁арганы	-10.4601
дыш	-10.4601
дилег	-10.4602
▁баштаан	-10.4602
Ава	-10.4602
▁элчин	-10.4603
▁съездиниң	-10.4604
чажыт	-10.4606
▁үнгеш	-10.4606
▁салдар	-10.4607
▁угаанныг	-10.4608
▁даалга	-10.461
хоозун	-10.4612
багай	-10.4614
▁чоогунда	-10.4614
▁проза	-10.4616
бут	-10.4618
▁колхозтуң	-10.4619
▁экс	-10.462
▁эртир	-10.4626
▁которо	-10.4627
▁футболчулары	-10.4627
ac	-10.4633
Алды	-10.4634
жылга	-10.4635
▁байдалды	-10.4635
▁шагдан	-10.4636
бет	-10.4636
нмээн	-10.4638
Чү	-10.4643
▁фон	-10.4646
цкая	-10.4647
▁аңдар	-10.4649
▁VI	-10.465
тынган	-10.4651
▁Кажан	-10.4651
▁тай	-10.4657
ээлээр	-10.466
▁прав	-10.4662
▁Бирги	-10.4671
▁пенсия	-10.4673
1939	-10.4673
▁ажыр	-10.4678
▁вып	-10.4679
▁Баштай	-10.4683
▁Күнзегеш	-10.4684
▁одуруг	-10.4685
лекс	-10.4688
Трудов	-10.4692
нет	-10.4695
1918	-10.4696
▁Дем	-10.4698
▁Чогум	-10.4701
▁ырылар	-10.4708
▁черлерге	-10.4708
▁чонну	-10.471
▁Москваже	-10.4713
дыл	-10.4717
▁мөзү	-10.4718
▁хаван	-10.4718
▁полу	-10.4724
▁аймааның	-10.4728
▁Сай	-10.4731
тся	-10.4733
ГА	-10.474
▁кыргы	-10.4742
Хой	-10.4743
▁экономиктиг	-10.4752
▁Стр	-10.4755
бодал	-10.4756
▁32	-10.4756
▁бүдүмел	-10.4757
▁сил	-10.4761
Дор	-10.4763
Режиссёр	-10.4763
▁музея	-10.4763
▁шыйыг	-10.4763
▁дашкаар	-10.4763
▁туттунган	-10.4763
▁Людмила	-10.4763
▁Сергеевна	-10.4764
▁войне	-10.4764
амыдырал	-10.4764
▁документилер	-10.4765
Клуб	-10.4766
▁(1997)	-10.4766
Сат	-10.4766
▁чайгы	-10.4768
▁международно	-10.4768
▁Мор	-10.4769
Мурнуу	-10.477
Преми	-10.4771
күштүг	-10.4772
▁чепсек	-10.4772
▁цех	-10.4773
охран	-10.4774
▁олурган	-10.4774
▁дээрзин	-10.4776
▁пал	-10.4779
▁образ	-10.4779
Мария	-10.4779
▁w	-10.4781
▁чуруктар	-10.4782
шир	-10.4786
бел	-10.4787
Чыраа	-10.4789
▁иштинче	-10.4792
▁кудумчузу	-10.4795
чный	-10.4796
үүшкүн	-10.4798
▁34	-10.4799
▁дүргени	-10.4799
▁өнчү	-10.48
▁минута	-10.4802
док	-10.4803
ении	-10.4805
агар	-10.4806
▁ижип	-10.4808
▁Дали	-10.4812
▁Президиуму	-10.4814
Улустар	-10.4821
1919	-10.4822
бады	-10.4823
▁аргалыг	-10.4826
биче	-10.4829
▁чылдагаан	-10.4832
▁сайзыралы	-10.4834
ость	-10.484
▁дипломат	-10.484
▁Лопсаң	-10.484
▁чааскаан	-10.4844
▁Татарстан	-10.4845
чка	-10.4848
чагыргазы	-10.4851
▁36	-10.4856
▁литератур	-10.4866
▁түңнели	-10.4867
▁медальды	-10.4877
▁оожум	-10.4884
▁оюнну	-10.4884
▁дем	-10.4887
▁бөмбүк	-10.4895
▁күс	-10.4895
▁полк	-10.4896
лакчы	-10.4897
▁даңзы	-10.4905
хеп	-10.4905
▁ТР	-10.4906
иениң	-10.4907
▁кажыкты	-10.4908
нерни	-10.4912
чаан	-10.4913
▁Мөңгүн	-10.4917
унуп	-10.4918
▁чыдып	-10.4923
▁Даш	-10.4923
▁парла	-10.4924
▁Элчини	-10.4924
▁Василий	-10.4925
▁хуннулар	-10.4926
▁буян	-10.4927
▁ырлар	-10.4928
Варшава	-10.493
▁управления	-10.493
▁авиация	-10.493
▁шинчилээн	-10.4931
чаяанныг	-10.4931
▁(1984)	-10.4932
▁ужудукчу	-10.4933
▁дииң	-10.4935
▁эъдин	-10.4935
▁ажа	-10.4935
▁бөлүүнүң	-10.4936
Текст	-10.4937
▁начала	-10.4937
сээң	-10.4938
▁Хаан	-10.4939
▁маадырлары	-10.494
ются	-10.4943
▁Александрович	-10.4944
түү	-10.4945
уруглар	-10.4946
көр	-10.4947
▁практика	-10.4958
▁башкарыкчызы	-10.4959
▁чалгы	-10.4961
▁также	-10.4963
цо	-10.4968
▁Россияга	-10.4969
1906	-10.4973
▁ангы	-10.4975
МИ	-10.4976
▁Валентина	-10.4976
▁булуң	-10.4977
дуп	-10.4981
кро	-10.4983
▁аксы	-10.4985
▁эмин	-10.4986
▁Челябинск	-10.4989
▁чары	-10.499
▁работы	-10.4991
▁серия	-10.4992
ze	-10.4992
▁хевирлерин	-10.5002
дужаалдыг	-10.5005
▁Ca	-10.501
▁шиилер	-10.5011
озал	-10.5013
▁искусств	-10.5013
▁мөгези	-10.5014
▁күштер	-10.502
лээшкин	-10.5023
▁аттарын	-10.5023
ажыг	-10.5028
▁ортаа	-10.5028
ырак	-10.5031
▁харылзаалар	-10.5031
▁түңнелдери	-10.5032
▁учен	-10.5034
оннар	-10.5036
▁хоор	-10.5039
Из	-10.504
▁Светлана	-10.5041
▁рольд	-10.5043
тюрк	-10.5047
▁сезонда	-10.5057
▁Рас	-10.5057
▁чуруур	-10.5057
▁чагырга	-10.506
▁тем	-10.5063
▁ордузун	-10.5065
▁даглары	-10.5066
▁состояни	-10.5068
назы	-10.5069
▁VII	-10.5072
жение	-10.5075
▁төлээ	-10.5075
боттарынга	-10.508
▁улузун	-10.5083
▁төрелдери	-10.5084
цу	-10.5092
жик	-10.5095
▁этно	-10.5096
механик	-10.5098
▁Түлүш	-10.5098
ҫ	-10.5099
▁специализи	-10.5099
▁холбашкан	-10.5099
Арзылаң	-10.5099
▁амыдырап	-10.5099
▁миллион	-10.5099
думчук	-10.51
▁төнген	-10.51
▁испан	-10.5101
бөгүн	-10.5101
▁элементилер	-10.5102
▁Улусчу	-10.5102
Первы	-10.5103
▁хоо	-10.5103
▁права	-10.5104
▁хөөр	-10.5104
▁хемчээ	-10.5105
дошкун	-10.5106
▁манап	-10.5106
▁Джо	-10.5109
▁тарып	-10.5112
евский	-10.5112
аштаар	-10.5114
үзе	-10.5115
▁тайылбырлап	-10.5118
база	-10.512
словары	-10.5121
АТ	-10.5121
▁алырын	-10.5122
▁душ	-10.5125
чыр	-10.5125
▁өөрүп	-10.5126
хөлчок	-10.5127
▁тодара	-10.5128
▁Даа	-10.5131
Кайы	-10.5133
▁харылзаазы	-10.5135
▁командазынга	-10.5139
штырар	-10.514
▁одно	-10.516
▁чемпионнары	-10.5167
▁очулга	-10.5167
▁Bo	-10.5167
▁нүгүл	-10.5171
CH	-10.5173
ена	-10.5173
Каш	-10.5179
1920	-10.518
▁кежин	-10.5181
шуптузу	-10.5185
Евро	-10.5187
▁Польша	-10.5189
иннер	-10.519
▁дылдары	-10.5193
төрел	-10.5195
ті	-10.5195
1926	-10.5205
чызы	-10.5206
ткел	-10.5213
▁районнуң	-10.5214
▁чыыжы	-10.5216
▁Мак	-10.5217
дуңма	-10.5223
▁33	-10.5239
ээли	-10.524
▁уруглары	-10.5241
Бокс	-10.5247
...»	-10.525
▁маадырлар	-10.5253
▁килограмм	-10.526
ina	-10.5262
▁хөгжүлдези	-10.5266
▁хоорайны	-10.5267
▁көрүңер	-10.5268
son	-10.5269
Саң	-10.527
▁Викимапии	-10.5272
УЕФА	-10.5272
▁книжно	-10.5272
платье	-10.5272
▁Соонда	-10.5272
▁современно	-10.5272
1925	-10.5272
▁чураан	-10.5273
Оглу	-10.5274
▁(1966)	-10.5274
ım	-10.5274
An	-10.5276
▁малды	-10.5283
rs	-10.5284
▁мать	-10.5285
▁Кыдаттың	-10.5286
буду	-10.5287
сөөк	-10.5291
барымдаа	-10.5292
po	-10.5294
шина	-10.5295
Владимир	-10.5296
▁карьеразы	-10.5303
▁уруун	-10.5309
ns	-10.5311
and	-10.5312
▁академик	-10.5313
дамды	-10.5314
▁телолар	-10.5319
хемчег	-10.5322
Иван	-10.5324
▁докторлары	-10.5324
▁шагы	-10.5329
▁логика	-10.5331
▁чуртунда	-10.5333
han	-10.5333
▁турачы	-10.5336
суур	-10.5343
камгала	-10.5343
аажы	-10.5344
ческий	-10.5345
Орук	-10.5346
▁ажыгла	-10.5349
хам	-10.535
74	-10.5353
▁Co	-10.5353
Международн	-10.5354
дүң	-10.5356
ленир	-10.5356
▁кыргыстар	-10.5361
▁эртине	-10.5368
▁−	-10.5369
сүттү	-10.538
айтыр	-10.5389
ылда	-10.5389
▁областька	-10.5392
▁Ro	-10.5392
rd	-10.5395
Демир	-10.54
▁хенертен	-10.54
үшкү	-10.5403
":	-10.5405
▁өөр	-10.5406
▁күзели	-10.5409
хора	-10.5411
пор	-10.5411
арай	-10.5413
хевир	-10.542
▁өскээр	-10.5422
▁келди	-10.5426
▁чаг	-10.543
▁мунар	-10.543
▁тело	-10.5437
▁Эвилелинни	-10.5439
▁хүндүткел	-10.5446
Q	-10.5447
▁нептереңгей	-10.5447
▁сайгарып	-10.5447
▁Даржай	-10.5447
▁Категория	-10.5447
▁драматург	-10.5447
▁адыгжы	-10.5447
▁молока	-10.5447
▁өртемчей	-10.5447
▁хемчээр	-10.5448
▁буд	-10.5448
Москваның	-10.5448
▁New	-10.5448
▁билиишкин	-10.5449
ному	-10.545
▁кылыг	-10.5453
▁Sa	-10.5453
▁1910	-10.5458
Ортума	-10.5463
▁баштыг	-10.5463
▁дорог	-10.5464
▁шүү	-10.5465
▁аргалары	-10.5466
▁ойталаар	-10.5468
▁Маадыр	-10.5469
▁харылзаалыг	-10.5473
▁1000	-10.5474
▁стал	-10.5475
▁даң	-10.5477
делегей	-10.5479
▁чоруптар	-10.5481
▁суук	-10.5481
солун	-10.5483
кут	-10.5483
Ажы	-10.5487
▁мында	-10.5489
▁чүүлдерниң	-10.5491
▁чуртталгазы	-10.5491
Лу	-10.5495
▁эргезин	-10.55
▁978-	-10.5503
Қ	-10.551
▁бодаан	-10.551
ями	-10.5513
айын	-10.5516
1900	-10.5519
тус	-10.552
стор	-10.5524
▁Чыл	-10.5526
▁дужаалы	-10.5529
▁Сайт	-10.5535
▁1931	-10.5537
▁Север	-10.5538
▁малы	-10.5542
▁XVIII	-10.5548
kı	-10.5555
ud	-10.556
▁четти	-10.5561
▁46	-10.5564
▁чагыра	-10.5565
▁тывылганы	-10.5569
▁аспирантуразын	-10.557
2)	-10.5574
чык	-10.5574
▁хөгжүмчү	-10.5579
▁проблем	-10.558
ковский	-10.558
fa	-10.5583
▁азар	-10.5588
Ачы	-10.5592
Реал	-10.5594
▁кислоталар	-10.5595
▁бригада	-10.5603
▁Шаг	-10.5604
▁Гур	-10.5605
шаанда	-10.5607
▁дагларын	-10.5613
орулга	-10.5614
хуузу	-10.5619
хит	-10.5621
▁төл	-10.5621
▁дөс	-10.5622
▁дүгүн	-10.5623
Ö	-10.5626
Статьи	-10.5626
Сөөлзүреди	-10.5626
▁промышленности	-10.5626
▁февраля	-10.5626
яблок	-10.5626
▁үндезилээн	-10.5626
▁премии	-10.5626
Лопсан	-10.5626
бүүрек	-10.5626
▁Алексеевна	-10.5626
▁бүдүрер	-10.5626
Шупту	-10.5626
Ниитилел	-10.5627
министр	-10.5627
орож	-10.5628
Dani	-10.5628
▁чайладыр	-10.5628
эвилелдиң	-10.5628
▁көшкен	-10.5628
▁дурту	-10.563
▁75	-10.5632
истиг	-10.5635
▁кааш	-10.5635
pa	-10.5638
▁сугар	-10.5639
▁To	-10.5639
▁күжүн	-10.5641
Барлык	-10.5643
▁тергиини	-10.5647
▁олчаан	-10.5648
▁аразын	-10.5648
▁бүрүн	-10.5651
▁Марина	-10.5652
▁мынчаар	-10.5653
▁даглыг	-10.5653
▁сонуургап	-10.5654
lü	-10.5655
▁Жу	-10.5657
кеземче	-10.5661
Хоорай	-10.5661
Барыын	-10.5663
▁билири	-10.5664
fe	-10.5666
▁организациялар	-10.5666
Великобритания	-10.5667
▁шоолуг	-10.5667
▁шинчилелдери	-10.5673
▁Хор	-10.5677
дик	-10.5677
ерлиг	-10.5678
ТАР	-10.5679
меңээ	-10.5683
▁чаң	-10.5683
▁28-	-10.5685
бук	-10.5686
Аян	-10.5687
▁училище	-10.5688
▁баз	-10.5688
▁чарыш	-10.5691
▁солуннар	-10.5691
▁Сөөлгү	-10.5692
чагаа	-10.5692
эш	-10.5696
▁деңзи	-10.5697
уштур	-10.5698
▁салаа	-10.5702
ng	-10.5704
▁системазының	-10.5705
осфера	-10.5706
улус	-10.571
▁мест	-10.5713
▁шугум	-10.5716
▁Олег	-10.5716
Амы	-10.5721
кра	-10.5723
▁Стамбул	-10.5724
▁120	-10.5724
нмес	-10.5736
Теле	-10.5736
хим	-10.5736
▁берди	-10.5738
▁хеме	-10.5745
илл	-10.5746
Команда	-10.5747
▁Хакас	-10.575
▁26-	-10.575
▁Поли	-10.5751
лист	-10.5758
▁чуруктары	-10.5759
▁био	-10.576
▁бирде	-10.5761
мед	-10.5761
нниӊ	-10.5762
▁баксыра	-10.5762
▁хемчээлин	-10.5766
▁дужаал	-10.5767
хендир	-10.5767
▁шиитпири	-10.5768
сур	-10.5772
▁сонуурга	-10.5775
АК	-10.5776
кыйгы	-10.578
ктыг	-10.5781
▁Марк	-10.5783
Po	-10.5785
▁эмнелгези	-10.5789
үзүк	-10.5791
▁результат	-10.5796
▁Чазак	-10.5803
ылгараңгай	-10.5805
▁можу	-10.5806
ل	-10.5807
▁гимназия	-10.5808
Мажалык	-10.5808
▁Институду	-10.5808
▁населения	-10.5808
ten	-10.5808
▁Иштики	-10.5808
▁Героя	-10.5808
▁кичээнгей	-10.5809
▁ээлээн	-10.5809
▁&	-10.5809
▁минерал	-10.5809
пункт	-10.581
▁Петрович	-10.5812
бүлениң	-10.5813
▁аргажок	-10.5813
▁доллар	-10.5814
▁телефон	-10.5814
тускайлаң	-10.5815
▁аараан	-10.5817
ді	-10.5817
▁арбан	-10.5819
▁таваржып	-10.5819
▁даай	-10.582
▁сайзырадыр	-10.582
▁диген	-10.5824
▁оолдуг	-10.5825
Бижик	-10.5825
▁садар	-10.5828
▁тургузуунга	-10.5829
▁хереглээр	-10.5833
▁үзел	-10.5833
▁мун	-10.5834
▁техникумун	-10.5836
кавы	-10.5837
далаш	-10.5837
▁Мил	-10.5839
лдиң	-10.584
готов	-10.5842
Херээжен	-10.5846
Август	-10.5849
▁Государственны	-10.585
Шаанда	-10.585
чаңы	-10.5851
Чамдык	-10.5851
Таңды	-10.5852
Z	-10.5852
кызыгаар	-10.5854
▁суурлар	-10.5856
Бойдус	-10.5858
амыдыралдың	-10.5859
совет	-10.5863
▁шүлүктери	-10.5869
▁Рад	-10.5872
▁училищези	-10.5873
сыл	-10.5875
өрээл	-10.5879
▁паш	-10.5881
▁шүлүктерин	-10.589
▁мергежил	-10.5891
Вер	-10.5891
1954	-10.5891
▁астроном	-10.5892
лли	-10.5892
▁шакта	-10.5893
моон	-10.5898
▁общ	-10.5901
жук	-10.5904
▁ра	-10.5912
▁агар	-10.5912
▁кинозу	-10.5916
▁полны	-10.5918
▁XVII	-10.5919
Чыл	-10.592
▁Галина	-10.5923
▁Надежда	-10.5935
тпа	-10.594
▁угааны	-10.5946
▁бөрү	-10.5952
лерден	-10.5952
анчыг	-10.5953
▁Төөгү	-10.5953
▁медицин	-10.5954
▁оглун	-10.5955
дужаалын	-10.5957
▁күрүнезин	-10.5957
скан	-10.5958
▁ойнаары	-10.5966
вали	-10.597
▁MS	-10.5973
Ашаа	-10.5974
үң	-10.5975
▁чүдүлгези	-10.5976
▁дайзын	-10.5979
▁кыдыы	-10.5981
XXI	-10.5987
▁уругларның	-10.5991
▁бел	-10.5992
ʊ	-10.5993
▁галерея	-10.5993
▁соңгуттурган	-10.5993
▁апаргаш	-10.5993
▁хѳй	-10.5993
▁транспорт	-10.5993
▁даянып	-10.5993
▁доозун	-10.5993
▁доозар	-10.5993
дамыр	-10.5993
▁кылаштаар	-10.5993
html	-10.5994
▁хоочуну	-10.5995
▁(1994)	-10.5995
▁аңнаар	-10.5996
▁(1985)	-10.5997
▁чугаалажып	-10.5998
▁чыпшыр	-10.6
▁хүннүң	-10.6
Королев	-10.6001
▁Гол	-10.6003
▁күрүнелер	-10.6004
▁чевегге	-10.6004
▁успехи	-10.6005
революстуг	-10.6005
цикл	-10.6007
▁Мин	-10.6007
▁аарыгларынга	-10.601
▁Уйгур	-10.6011
▁Оң	-10.6014
▁одуруглар	-10.6022
Угаан	-10.6029
курс	-10.6031
▁чарлып	-10.6031
форм	-10.6032
▁Театр	-10.6034
Ара	-10.6036
хенертен	-10.6043
▁органнары	-10.6044
▁мени	-10.6045
93	-10.6045
ландыр	-10.6049
▁Тер	-10.6051
далган	-10.6052
ьный	-10.6052
▁Абакан	-10.606
ich	-10.6064
▁айдан	-10.6064
▁аяк	-10.6069
▁Россиян	-10.6071
▁op	-10.6074
сак	-10.6075
Юань	-10.6081
Уруу	-10.6082
▁1911	-10.6084
▁дээ	-10.6086
дис	-10.6086
Нур	-10.6089
оф	-10.609
орун	-10.609
Как	-10.6094
▁дазыл	-10.6095
▁кезээде	-10.6096
▁коммунисти	-10.6097
үс	-10.6098
▁Елизавета	-10.6104
▁чара	-10.6105
мур	-10.6106
▁ряд	-10.6113
мээ	-10.6116
▁чаъс	-10.6118
шпас	-10.6123
елдиг	-10.6124
Si	-10.6126
be	-10.6128
▁юристер	-10.6129
лава	-10.6132
Автор	-10.6135
▁үндезини	-10.6136
▁материалы	-10.6136
▁Li	-10.6136
чоо	-10.6149
Бады	-10.6151
▁Te	-10.6154
▁Дмитрий	-10.6155
найырал	-10.6159
▁металл	-10.616
соңгулда	-10.6163
▁байырлал	-10.6163
▁талазын	-10.6164
▁уезд	-10.6177
Мисс	-10.6177
▁төнчүзүн	-10.6178
хөлези	-10.6179
▁ролю	-10.618
▁хамааты	-10.618
▁тоорук	-10.618
▁Ya	-10.6181
▁волейбол	-10.6181
һ	-10.6181
ə	-10.6181
▁сактыышкыннар	-10.6181
▁1941—1945	-10.6181
▁Леонид	-10.6181
▁Мадрид	-10.6181
▁христиан	-10.6181
▁долдур	-10.6181
▁үндезилеттинген	-10.6182
Чыынды	-10.6182
▁изи	-10.6182
▁киришкеш	-10.6182
▁чагырып	-10.6182
Июль	-10.6182
боостаа	-10.6184
▁ажаап	-10.6184
▁бурун	-10.6184
▁төрүттүнер	-10.6185
чөп	-10.6185
▁400	-10.6187
▁чогаалчыларның	-10.6187
▁тарыыр	-10.6188
▁международны	-10.6191
▁боево	-10.6191
мени	-10.6194
▁этнография	-10.6194
▁кырынче	-10.6195
▁чүүлүнүң	-10.6196
дужа	-10.6197
▁Сав	-10.6197
▁соңгуткан	-10.6197
қы	-10.6198
▁ырлап	-10.6199
▁кул	-10.6201
▁сельском	-10.6208
▁ие	-10.6211
Русск	-10.6213
▁номунда	-10.6214
▁поэт	-10.6215
▁колледж	-10.6217
▁түр	-10.6217
ологически	-10.6219
НЫ	-10.6221
▁стран	-10.6222
▁Карл	-10.6227
▁ажылдарны	-10.623
сун	-10.6233
Бичии	-10.6236
▁Саха	-10.6236
Ады	-10.6238
▁Любовь	-10.6238
▁шериглери	-10.6238
тайбың	-10.6239
▁фонд	-10.624
▁Tr	-10.6243
НА	-10.6245
▁заводу	-10.6249
балык	-10.6253
▁Йо	-10.6254
▁Кас	-10.6255
▁Швеция	-10.6256
▁Из	-10.6262
аттынган	-10.6265
▁дүжүр	-10.6265
▁кодан	-10.627
үне	-10.6272
▁кез	-10.6275
өжээн	-10.6275
строй	-10.6284
Город	-10.6287
▁чүүлүн	-10.6289
▁пор	-10.6294
▁Енисей	-10.6294
Хам	-10.6297
▁өңнер	-10.6297
лгаш	-10.63
ent	-10.63
len	-10.6302
▁төлээр	-10.6302
ical	-10.6304
▁оюнун	-10.6307
метр	-10.6307
▁(2)	-10.6309
чуртуң	-10.631
▁Маг	-10.6315
ухов	-10.6316
өлүр	-10.6316
студия	-10.6319
▁31-	-10.6319
чилер	-10.632
▁ролюн	-10.632
▁адаары	-10.6321
альная	-10.6322
▁англ	-10.6323
▁тавар	-10.6324
▁номда	-10.6326
шева	-10.6329
▁болдурар	-10.6329
номнар	-10.633
Ажык	-10.6332
Дыл	-10.6332
адак	-10.6333
▁чүвези	-10.6333
Ma	-10.6334
теле	-10.6342
▁сула	-10.6346
чуур	-10.6353
пад	-10.6356
▁оолдары	-10.6359
▁оста	-10.6359
▁ораа	-10.6361
▁халдаашкын	-10.6363
Тува	-10.6363
Чу	-10.6365
▁черлерни	-10.6366
▁ногаан	-10.6366
▁специалист	-10.6366
Даа	-10.6367
▁кезектери	-10.6372
ĕ	-10.6374
▁явля	-10.6374
Июнь	-10.6374
▁Эдит	-10.6374
Хөлдүң	-10.6376
▁Чехов	-10.6376
▁Камбы	-10.6376
▁философчу	-10.6377
▁өлүп	-10.6377
▁Тумат	-10.6378
Өр	-10.6379
▁кадын	-10.638
▁форм	-10.6382
Кым	-10.6382
▁Якут	-10.6383
Арга	-10.6384
шкак	-10.6387
▁детей	-10.6387
▁Джон	-10.6388
▁Мында	-10.6389
▁чугаазын	-10.6394
▁Ko	-10.6395
▁Центрально	-10.6399
▁эмнээр	-10.6403
▁Мат	-10.6405
▁Ван	-10.6409
▁банк	-10.641
▁Шагаа	-10.641
Екатери	-10.6415
Улус	-10.6416
▁Pro	-10.6416
Терек	-10.6424
gu	-10.6425
тынып	-10.6425
▁85	-10.6426
▁развед	-10.643
▁сорт	-10.6431
▁Константин	-10.6432
▁кафедразынга	-10.6436
▁деңнели	-10.6437
▁дайызын	-10.6438
чаъс	-10.6439
даштыкы	-10.644
▁хосталга	-10.6442
ыжык	-10.6443
▁„	-10.6443
Тараа	-10.6445
пат	-10.6446
дидим	-10.6449
Баш	-10.645
▁белеткээн	-10.6455
▁Бол	-10.6455
▁Баштайгы	-10.6461
чараш	-10.6462
▁Африка	-10.6463
Туран	-10.6463
Петербургка	-10.6465
▁Сибир	-10.6467
mp	-10.6467
▁86	-10.6469
▁чедиишкини	-10.6469
▁47	-10.6474
▁Бразилия	-10.6476
▁45	-10.6477
1946	-10.648
▁турганын	-10.6488
▁глав	-10.6489
▁чуруму	-10.6489
сандай	-10.6492
изин	-10.6492
Нам	-10.6493
служ	-10.6494
▁чип	-10.6498
▁дүжүт	-10.6506
дро	-10.6507
▁анти	-10.6508
КУ	-10.6508
профессионалдыг	-10.6515
▁ногаа	-10.6515
иви	-10.6525
дамчыдылга	-10.6526
▁93	-10.6527
рези	-10.6529
изиг	-10.6533
ундан	-10.6537
сиген	-10.6538
зек	-10.654
Сөс	-10.6544
▁ламалар	-10.6547
▁лес	-10.6547
▁киш	-10.6548
▁таакпы	-10.6549
▁атка	-10.6549
▁сагы	-10.6549
▁чыда	-10.6553
▁чогуур	-10.6554
▁кезиин	-10.6559
▁съезд	-10.656
▁тофалар	-10.656
Гра	-10.6561
▁камгалалы	-10.6561
▁эскер	-10.6562
аарыыр	-10.6562
иитизи	-10.6566
Найырал	-10.657
Персоналии	-10.657
▁Вячеслав	-10.657
▁достигнуты	-10.657
▁шыгжаар	-10.657
Менделеев	-10.657
▁комбинат	-10.657
▁фашистер	-10.657
▁Чемпионаттары	-10.657
▁Труда	-10.657
▁башкарып	-10.657
▁юбилей	-10.657
▁аниме	-10.657
▁ислам	-10.657
▁65	-10.6571
▁против	-10.6571
▁көвү	-10.6572
Англи	-10.6573
▁(1971)	-10.6573
Кырган	-10.6573
▁кылгаш	-10.6573
ph	-10.6573
▁ниитилелдиң	-10.6574
▁комиссиязы	-10.6575
▁чадавас	-10.6575
▁күүселдези	-10.6576
go	-10.6576
▁психология	-10.6577
кулаа	-10.658
▁тонн	-10.658
tuva	-10.6581
nın	-10.6581
▁тывы	-10.6582
ттырар	-10.6582
▁Путин	-10.6588
льно	-10.6588
ыжын	-10.6589
төлдүг	-10.6592
▁киржикчилери	-10.6593
ледир	-10.6596
▁кайда	-10.6597
латтынган	-10.6599
▁много	-10.66
оид	-10.6604
ССР	-10.6604
▁Туве	-10.6608
ku	-10.6609
хөл	-10.6611
▁очулдурар	-10.6613
Баг	-10.6614
sk	-10.6615
▁Бур	-10.6618
пей	-10.6619
чная	-10.6622
▁Дээр	-10.6623
тарынга	-10.6625
▁Арыг	-10.6627
▁кезиинде	-10.6628
▁делгелге	-10.6629
дыштан	-10.663
▁Ок	-10.6633
саазын	-10.6634
-2003	-10.6639
▁бижиктери	-10.664
▁географ	-10.6641
оюп	-10.6641
муңгара	-10.6653
IX	-10.6654
▁(12	-10.6657
az	-10.6658
Николай	-10.6659
▁Фрида	-10.6661
1912	-10.6664
дузалыг	-10.6666
▁каз	-10.6667
Азия	-10.6667
▁(1960	-10.6667
▁шыңгыы	-10.6669
▁өөрү	-10.6673
артык	-10.6674
▁Өөредилге	-10.6683
өгбе	-10.6684
▁Зинаида	-10.6687
1953	-10.6688
▁хевирлер	-10.669
лор	-10.669
za	-10.6692
▁чогаалының	-10.6694
жаан	-10.67
еңги	-10.67
еестр	-10.67
Больш	-10.6704
▁(14	-10.6706
бро	-10.6709
зак	-10.6711
▁шажынның	-10.6712
▁караңгы	-10.6712
▁1915	-10.6716
▁Серге	-10.6721
▁делгелгелер	-10.673
▁арны	-10.6738
▁Там	-10.674
▁Материал	-10.6742
Тай	-10.6744
▁эрес	-10.6749
▁были	-10.6749
▁ээр	-10.6751
▁тофа	-10.6755
▁чылды	-10.6757
▁ажылчы	-10.6758
▁орулга	-10.6758
вания	-10.6759
бель	-10.676
▁Черниң	-10.6761
▁приз	-10.6763
▁Лидия	-10.6764
актыг	-10.6765
ладып	-10.6768
технолог	-10.677
α	-10.677
▁хуулгаазын	-10.677
▁чортупкан	-10.677
▁эвээже	-10.677
Сентябрь	-10.677
картофель	-10.677
▁КПСС	-10.677
▁партизан	-10.677
демократ	-10.677
участок	-10.677
▁хүндүлээр	-10.677
Эдуард	-10.677
Шивилиг	-10.677
▁каждо	-10.677
▁таарымчалыг	-10.677
▁болбаазырадыр	-10.677
▁микро	-10.677
▁даараар	-10.677
▁Чамзы	-10.677
▁бердинген	-10.677
▁халдакчы	-10.6771
Дириг	-10.6771
▁чүък	-10.6772
▁Отечеством	-10.6772
▁шиитпирлээн	-10.6772
▁маргылдаазы	-10.6772
▁программ	-10.6772
▁өлүм	-10.6772
▁(1989)	-10.6773
▁көргүзүглер	-10.6773
хирург	-10.6773
▁(1970)	-10.6774
▁1908	-10.6774
ЛА	-10.6775
▁дужаар	-10.6776
▁чижектиг	-10.6777
▁өөредилгезиниң	-10.6778
▁Пред	-10.6782
Бедик	-10.6784
▁Википедия	-10.6784
▁чуруктарын	-10.6786
▁археология	-10.6786
шынап	-10.6793
▁пле	-10.6793
▁города	-10.6794
▁чурукчузу	-10.6795
▁чорууру	-10.6795
▁туруш	-10.6796
очка	-10.6801
шаа	-10.6801
▁чогаалын	-10.6802
▁Музей	-10.6803
▁чорукту	-10.6804
▁быжыглаар	-10.6804
▁үстү	-10.6815
Физика	-10.6818
баар	-10.682
▁чогум	-10.6822
▁хандырар	-10.6822
▁99	-10.6825
og	-10.6827
Демде	-10.6827
per	-10.6828
илээн	-10.6831
нниг	-10.6833
льц	-10.6834
▁сөөгүн	-10.6835
Эмчи	-10.6837
▁академиязы	-10.6838
▁театрынга	-10.6841
▁искусства	-10.6845
Раз	-10.6846
мону	-10.6846
▁кош	-10.6847
▁суун	-10.6847
▁санын	-10.6848
▁долга	-10.6849
▁шериин	-10.685
▁реж	-10.6852
Франция	-10.6852
Эд	-10.6853
Казах	-10.6857
▁күзел	-10.686
Байыр	-10.6862
нерге	-10.6864
1895	-10.6864
▁аялга	-10.6865
▁доктаа	-10.6867
▁der	-10.6876
ang	-10.688
▁Киров	-10.6882
сек	-10.6883
Кан	-10.6884
▁чадап	-10.6888
▁Дөрт	-10.689
билиглиг	-10.6896
▁шаап	-10.6898
▁хажы	-10.6898
скую	-10.69
br	-10.69
Акша	-10.6901
▁Кени	-10.6901
ьевна	-10.6904
лдыг	-10.6906
▁чыындызын	-10.6907
скиниң	-10.6909
енный	-10.692
рыв	-10.692
исп	-10.6927
өөгү	-10.693
евтиң	-10.6931
▁түңнелдер	-10.6933
шээр	-10.694
▁ылгалы	-10.6941
▁Федерал	-10.6942
sta	-10.6945
ТА	-10.6946
▁кожуунга	-10.6947
ицы	-10.6947
▁пост	-10.6948
▁негелде	-10.695
ong	-10.6953
Сай	-10.6954
чээн	-10.6955
1914	-10.6956
реме	-10.6957
▁дайынчылар	-10.6958
енная	-10.6958
▁хамаан	-10.6961
лэ	-10.6965
▁сайзырал	-10.6966
классиктиг	-10.6966
au	-10.697
▁ажылында	-10.6971
ʃ	-10.6974
Экономика	-10.6974
▁Press	-10.6974
▁сборник	-10.6974
▁Барыкаан	-10.6974
▁дужаап	-10.6974
нефть	-10.6974
▁уламчылап	-10.6974
Чем	-10.6975
дугуй	-10.6975
Чечек	-10.6977
▁(1983)	-10.6977
▁Евгени	-10.6978
сир	-10.6978
▁солуп	-10.6978
Шажын	-10.698
▁семи	-10.6983
▁октап	-10.6984
сың	-10.6985
▁хемни	-10.6987
▁Тай	-10.6988
▁балл	-10.6991
шажын	-10.6992
пазы	-10.6994
▁He	-10.6998
лив	-10.6998
▁адып	-10.6999
▁бригадир	-10.7002
▁хайны	-10.7006
▁государств	-10.7009
▁дой	-10.7009
▁авам	-10.7011
▁ужуражылга	-10.7011
▁соксадыр	-10.7016
Гер	-10.7017
▁Социалистическо	-10.702
кум	-10.7022
льше	-10.7024
Ыр	-10.7024
▁ажыглаан	-10.7025
▁шилилге	-10.7027
чаг	-10.7028
чолу	-10.7032
▁чаап	-10.7032
▁сюжет	-10.7037
▁фронт	-10.7044
обл	-10.7044
▁бө	-10.7045
▁маргылдааларга	-10.7047
▁суурунда	-10.7048
▁парлалга	-10.705
▁Иран	-10.7051
ьных	-10.7053
▁Даль	-10.7056
▁Сибирьде	-10.7058
Енисей	-10.7059
Ийме	-10.7061
▁(1)	-10.7061
Өөредилге	-10.7063
Культура	-10.7064
Школа	-10.7065
эът	-10.7067
▁Байкал	-10.7067
▁өзер	-10.7067
▁бокс	-10.7068
▁Украинаның	-10.7069
Анна	-10.7069
үннүң	-10.707
▁43	-10.7071
▁Ынчаар	-10.7071
азар	-10.7071
байдал	-10.7074
uk	-10.7075
▁Игорь	-10.7075
машина	-10.7081
медээ	-10.7082
▁ней	-10.7083
ГИ	-10.7083
завод	-10.7084
1933	-10.7094
Бурун	-10.7095
|3	-10.71
sch	-10.7105
тим	-10.7108
▁Хал	-10.7109
▁Бро	-10.7114
▁Дус	-10.7117
▁чазын	-10.7119
▁Пор	-10.7119
▁Оларны	-10.7124
кожа	-10.7138
▁хүрээзи	-10.7138
▁НА	-10.7138
tin	-10.7139
▁эргези	-10.714
▁Хоорай	-10.7141
▁иези	-10.7145
доктаал	-10.7145
алдарлыг	-10.7146
альд	-10.7146
енных	-10.7148
фу	-10.7151
лгелер	-10.7152
давас	-10.7154
▁кошкак	-10.7154
▁сайтызы	-10.7158
хөм	-10.7162
ill	-10.7164
▁чуурга	-10.7167
▁албада	-10.7168
▁холун	-10.7169
▁ордениниң	-10.7174
▁48	-10.718
▁хала	-10.7181
оожурга	-10.7182
English	-10.7182
ɪ	-10.7182
Анастасия	-10.7182
интервью	-10.7182
▁Станислав	-10.7182
▁Университет	-10.7182
▁телевидение	-10.7182
▁участие	-10.7182
▁чангыс	-10.7182
▁фонема	-10.7182
▁Жан	-10.7182
▁времени	-10.7183
▁качеств	-10.7183
Шѳлүлгелер	-10.7183
▁дамчыдып	-10.7183
▁демдеглелдер	-10.7183
Люди	-10.7184
кадык	-10.7184
Эртине	-10.7184
корреспондентизи	-10.7184
дурт	-10.7185
▁өңү	-10.7185
▁Хемчиктиң	-10.7185
кылымал	-10.7188
▁үгер	-10.7188
▁Шагаан	-10.7188
слава	-10.7189
▁Павловна	-10.7191
▁Tim	-10.7191
Der	-10.7192
▁Берлин	-10.7192
рез	-10.7194
дээрбе	-10.7197
▁уруглуг	-10.7197
▁сайзырап	-10.7198
▁хеви	-10.7199
▁000)	-10.7209
▁шынарлары	-10.721
эпчок	-10.7212
Чурту	-10.7216
дириг	-10.7217
▁чайын	-10.7219
▁Ген	-10.722
▁эмчилер	-10.7221
▁Максим	-10.7228
ленип	-10.7231
ty	-10.7232
чагыг	-10.7234
ниитиниң	-10.7235
▁апаарга	-10.7237
ris	-10.7238
менди	-10.7238
ботка	-10.724
▁Эрги	-10.7243
летия	-10.7245
кпе	-10.7247
▁Австрия	-10.725
рах	-10.7251
дизи	-10.7254
▁журналистер	-10.7257
▁бүрүзүнде	-10.7259
вус	-10.7259
чая	-10.726
вард	-10.726
▁назында	-10.7263
▁чурттарда	-10.7264
▁депутаттар	-10.7266
▁класстар	-10.7267
▁органы	-10.727
▁World	-10.7271
▁Узбекистан	-10.7271
шупту	-10.7272
▁төөгүде	-10.728
үндезин	-10.7281
чогуур	-10.7282
пенсия	-10.7282
лі	-10.7283
сөөлгү	-10.7283
өшкү	-10.7283
▁кылырынга	-10.7286
▁чугаалары	-10.7287
gi	-10.7288
▁мөңге	-10.7293
▁кырындан	-10.7293
▁Донгак	-10.7294
Дөрт	-10.7297
▁кудуп	-10.7298
▁чуртун	-10.7299
фия	-10.73
линг	-10.73
тпайн	-10.7301
5:00	-10.7301
Тере	-10.7303
Жен	-10.7309
▁очулгазы	-10.7312
▁тайылбырлаар	-10.7313
риф	-10.7315
дерин	-10.7318
▁спортсмен	-10.7318
net	-10.7321
▁адынга	-10.7328
▁вод	-10.7329
баев	-10.7331
▁төлээзи	-10.7333
▁шаңналдар	-10.7333
▁Sp	-10.7334
Шак	-10.7336
▁Петров	-10.7339
Ишти	-10.7339
етти	-10.7341
▁шынчы	-10.7341
▁ою	-10.7342
▁Ja	-10.7349
?»	-10.7352
орден	-10.7352
Памят	-10.7359
▁согар	-10.7361
хууда	-10.7365
▁маң	-10.7366
чурук	-10.7366
▁эрт	-10.7366
культурлуг	-10.7369
өөреникчи	-10.7381
ara	-10.7382
выше	-10.7387
туӊ	-10.7389
▁үелер	-10.7391
▁масса	-10.7391
▁(15	-10.7392
▁бараалга	-10.7393
▁доцент	-10.7394
▁күүседикчи	-10.7395
ŋ	-10.7395
Галатасарай	-10.7395
хайындырган	-10.7395
▁Верховно	-10.7395
▁выполнени	-10.7395
▁лейтенант	-10.7395
▁мусульман	-10.7395
Писатели	-10.7395
▁каттыжыышкыннар	-10.7395
Чиңгис	-10.7395
▁только	-10.7395
дорамчы	-10.7395
▁Семёновна	-10.7395
▁бертинде	-10.7395
▁школы	-10.7395
▁статузу	-10.7395
Кавказ	-10.7395
▁неделя	-10.7395
▁каасталга	-10.7395
Амыдырал	-10.7395
▁древне	-10.7395
▁гуманитарлыг	-10.7396
▁октаргай	-10.7396
▁Воронеж	-10.7396
зымаар	-10.7396
▁(1964)	-10.7397
▁государственный	-10.7397
▁амданныг	-10.7397
фик	-10.7398
▁болгулаар	-10.7398
Алаак	-10.7399
▁эдилеп	-10.7399
▁хөңнү	-10.7399
▁базып	-10.7399
▁(2018)	-10.74
▁мунуп	-10.74
▁чечектер	-10.74
▁белдир	-10.7401
▁органиктиг	-10.7401
▁критик	-10.7402
▁точка	-10.7402
Уруг	-10.7402
Илья	-10.7402
ковтуң	-10.7403
бодунга	-10.7408
▁бадыткап	-10.7408
▁Бора	-10.7408
▁портрет	-10.741
▁призёру	-10.7411
Кудажы	-10.7415
▁курлавыры	-10.7416
▁хамаарылгалыг	-10.7417
буруузун	-10.7419
▁өөреникчилери	-10.7421
ko	-10.7421
дужаалдар	-10.7427
ary	-10.7428
▁түңү	-10.7428
соок	-10.743
бужар	-10.743
▁шили	-10.743
▁теккен	-10.743
аттар	-10.7433
▁өзээ	-10.7433
▁Свердловск	-10.7435
▁бөлүкке	-10.7437
▁ужуражы	-10.7437
cı	-10.7442
▁киржилгези	-10.7447
хавыяазы	-10.745
▁страны	-10.7453
цер	-10.7454
▁52	-10.746
▁саар	-10.7461
▁Go	-10.7462
▁алырынга	-10.7462
буру	-10.7462
▁Герои	-10.7465
▁Гали	-10.7467
▁тугу	-10.7471
▁XIX	-10.7477
▁курстар	-10.7478
▁часка	-10.7481
Гол	-10.7482
Три	-10.7484
▁Кыс	-10.7491
бистиң	-10.7491
улдур	-10.7492
▁эвилели	-10.7494
Тувинск	-10.7502
шыңгыы	-10.7503
▁созда	-10.7505
бойдус	-10.7505
ноябрь	-10.7505
мина	-10.751
▁ужурунда	-10.7514
чижээ	-10.7516
кыш	-10.7516
▁Софья	-10.7523
▁экспедиция	-10.7525
арылга	-10.7525
▁Мер	-10.7527
шүлүк	-10.7529
киир	-10.7531
▁аъды	-10.7535
▁чоруурун	-10.7536
▁черлериниң	-10.7537
ийиги	-10.7538
▁уза	-10.754
катап	-10.7541
lık	-10.7541
ткы	-10.7542
▁биолог	-10.7545
▁Фер	-10.7546
▁Con	-10.7547
▁аалчылар	-10.755
▁курстарын	-10.7551
▁демдектер	-10.7559
ren	-10.7559
▁цвет	-10.756
eli	-10.7561
▁(5	-10.7563
аксы	-10.7564
▁аныяктары	-10.7564
▁Моңгушев	-10.7569
▁37	-10.757
iş	-10.7574
▁Чаңгыс	-10.7579
1931	-10.7579
▁үени	-10.7581
дорт	-10.7582
үдээ	-10.7586
корум	-10.7592
▁энергиязы	-10.7595
лавас	-10.7601
▁оюнда	-10.7602
▁тоо	-10.7602
Гор	-10.7603
вич	-10.7604
авай	-10.7604
ртыш	-10.7607
▁Ç	-10.7609
Буддизм	-10.7612
Довурак	-10.7612
таңныыл	-10.7612
ў	-10.7612
▁University	-10.7612
▁некоторы	-10.7612
·	-10.7612
Гафури	-10.7612
Статья	-10.7612
▁каталог	-10.7612
▁хойтпак	-10.7612
▁календары	-10.7612
Торгалыг	-10.7612
▁министерствозу	-10.7613
Интернет	-10.7613
▁тудум	-10.7613
РИ	-10.7614
▁таптыг	-10.7614
▁обкому	-10.7614
Чырык	-10.7614
▁(1967)	-10.7615
▁(1981)	-10.7616
▁(1993)	-10.7616
▁халавы	-10.7616
▁төрүүр	-10.7617
ust	-10.7618
▁уеде	-10.7619
▁(1990)	-10.7619
▁Алматы	-10.7619
Комитет	-10.7621
▁дамчыдар	-10.7624
▁хайгаарап	-10.7626
▁дүрүмү	-10.7626
▁игил	-10.7629
art	-10.7631
▁санаан	-10.7632
if	-10.7632
▁закон	-10.7635
▁свои	-10.7635
▁который	-10.7635
▁дуга	-10.7638
▁шаңналдыг	-10.7644
хырын	-10.7645
▁источник	-10.7646
▁Kültür	-10.7646
▁голду	-10.7656
▁кириш	-10.7664
▁оске	-10.7664
▁иштин	-10.7665
▁сөстен	-10.7666
▁институдунче	-10.767
▁студиязы	-10.7672
монт	-10.7676
▁продукт	-10.7678
ают	-10.7682
▁ЦК	-10.7686
▁стили	-10.7688
▁маг	-10.7689
МА	-10.7689
▁сонуургалы	-10.7689
age	-10.7692
▁чоруун	-10.7695
ынча	-10.7699
▁дээре	-10.77
▁Филипп	-10.77
▁трактор	-10.77
чагыр	-10.7703
▁сөстерниң	-10.7704
▁илдең	-10.7706
▁хув	-10.772
чурукту	-10.7722
▁арнын	-10.7723
▁Хертек	-10.7728
▁уйгу	-10.7728
▁саада	-10.7729
ургузунда	-10.773
Лопсаң	-10.7731
айыыл	-10.7731
Наталья	-10.7732
Даштыкы	-10.7732
темага	-10.7733
▁культуразын	-10.7733
▁Эгезинде	-10.7733
көдээ	-10.7734
Алдай	-10.7736
ишчи	-10.7745
аныяк	-10.7746
Теве	-10.7746
ттынмас	-10.7748
▁шынарын	-10.7756
▁этнограф	-10.7756
nu	-10.7758
▁дев	-10.7763
▁кинолар	-10.7763
грам	-10.7765
▁человек	-10.7771
щик	-10.7782
моол	-10.7786
▁дайынын	-10.7789
спорт	-10.779
▁кезектерин	-10.7793
▁мөөң	-10.7794
рид	-10.7801
▁област	-10.7805
▁кожумак	-10.7806
Бурятия	-10.7811
▁Шар	-10.7814
▁эдип	-10.7818
▁Fa	-10.7819
▁өөрүшкү	-10.782
анды	-10.7823
Тюрк	-10.7823
Герой	-10.7823
▁фото	-10.7827
Башкы	-10.7829
Народн	-10.7829
▁словары	-10.783
▁өзе	-10.7832
илдиг	-10.7833
субъект	-10.7834
▁транскрипция	-10.7835
Жизнь	-10.7835
̳ʿ	-10.7835
тывынгыр	-10.7835
көвүрүг	-10.7835
▁төрүттүнүп	-10.7835
▁таблица	-10.7835
▁базыышкыны	-10.7835
▁деятельности	-10.7835
▁Регина	-10.7836
▁томуйлаткан	-10.7836
▁края	-10.7837
▁дузалажып	-10.7837
▁тургузуг	-10.7837
▁көрбээн	-10.7838
▁чоогунга	-10.7839
▁дериг	-10.784
▁төлү	-10.7842
Медээ	-10.7843
шимээн	-10.7843
▁гидро	-10.7846
▁Мас	-10.785
▁бүрүзүнге	-10.785
▁тут	-10.7852
саң	-10.7855
▁хыл	-10.7856
▁сургуулдар	-10.7857
▁чиңги	-10.7857
▁Антон	-10.7857
▁кас	-10.7857
▁Адазы	-10.7859
▁черлик	-10.786
▁талалыг	-10.7861
энд	-10.7865
спектакль	-10.7866
lik	-10.7866
истика	-10.7869
▁туризм	-10.787
Сайт	-10.7874
меди	-10.7875
▁Оол	-10.7875
▁тураскаалдары	-10.7876
▁Вайнштейн	-10.7876
▁дүжүрер	-10.7876
пресс	-10.7877
хүл	-10.7878
Самбо	-10.7879
▁Сарыглар	-10.7879
вская	-10.7879
хая	-10.788
▁производства	-10.7883
▁оглунуң	-10.7888
▁аңгылап	-10.7893
▁Центр	-10.7894
▁станциязы	-10.79
▁Император	-10.7907
▁свет	-10.7909
▁узуткаар	-10.791
Кононов	-10.7913
▁виноград	-10.7915
Чылдың	-10.792
▁Гран	-10.7922
хевирин	-10.793
чуртун	-10.7938
▁Валерий	-10.7938
чоруу	-10.7938
Тофа	-10.7938
▁1905	-10.7945
▁аап	-10.7948
▁очерк	-10.795
раб	-10.7952
Ата	-10.7954
▁шып	-10.7956
урун	-10.7958
човулаң	-10.7959
сеткилди	-10.7962
▁кандидаттары	-10.7962
Баштайгы	-10.7964
Хакас	-10.7965
шыырак	-10.7966
чүрек	-10.7966
Бурган	-10.7967
▁Дар	-10.7967
медальдар	-10.7968
Адыг	-10.7972
ъш	-10.7975
▁be	-10.7976
музыка	-10.7977
1911	-10.7978
салым	-10.7978
▁турачылар	-10.7979
▁Миро	-10.7981
дайын	-10.7984
Украина	-10.7988
ению	-10.7988
1890	-10.7989
Ук	-10.7991
▁Моолда	-10.7995
▁гос	-10.7998
ңарны	-10.8
сад	-10.8
▁Франц	-10.8003
Дайын	-10.8004
▁Mat	-10.8004
▁солунга	-10.8005
гина	-10.8006
▁ортузу	-10.8009
▁бригадазы	-10.801
▁кеземче	-10.8017
yan	-10.8017
ï	-10.802
сост	-10.8021
▁Магнитогорскунуң	-10.8025
▁саналы	-10.8026
поезди	-10.8027
▁кедергей	-10.8032
төлевир	-10.8032
ТР	-10.8036
▁Гал	-10.8036
тинген	-10.8046
▁Көдээ	-10.805
лған	-10.8053
ище	-10.8053
▁сост	-10.806
▁Степан	-10.806
Тураскаал	-10.8061
ς	-10.8062
Брахмагупта	-10.8062
Продолжа	-10.8062
Фенербахче	-10.8062
▁памятник	-10.8062
▁хайындыргаш	-10.8062
костюм	-10.8062
▁978-5-9	-10.8062
▁Европы	-10.8062
▁Чадамба	-10.8062
▁атлетика	-10.8062
▁үзүндү	-10.8062
▁Хайыракан	-10.8062
▁эргилдези	-10.8062
▁Огуз	-10.8062
▁получение	-10.8062
Дхарма	-10.8062
▁(1942)	-10.8063
кулак	-10.8064
▁Төвүттүң	-10.8064
▁болбаан	-10.8064
▁(1987)	-10.8065
▁томнуг	-10.8065
▁уламчылаар	-10.8066
эзир	-10.8066
Красный	-10.8066
▁албаан	-10.8068
▁чажындан	-10.8068
▁(2017)	-10.8069
мерген	-10.8069
бора	-10.8069
▁казыыр	-10.8069
▁Ыракк	-10.8071
▁бөрт	-10.8072
▁сеткүүлү	-10.8075
▁эртемни	-10.8076
льной	-10.8077
XI	-10.8077
▁өлүрүп	-10.8078
Көк	-10.8078
▁төөгүзүнүң	-10.8079
▁Алма	-10.8082
▁айтырыы	-10.8083
▁бадыткаан	-10.8084
▁туда	-10.8086
▁угулзалар	-10.8086
ханы	-10.8088
огород	-10.8088
▁аргаларын	-10.8093
▁тоожузу	-10.8093
▁келирге	-10.8094
Олимпиада	-10.8096
vo	-10.8098
▁талаже	-10.8099
1888	-10.81
үстүкү	-10.8101
▁тургузарынга	-10.8105
чүзү	-10.8107
чаңчыл	-10.8107
▁74	-10.8108
▁Татар	-10.8111
▁Уран	-10.8112
▁Воен	-10.8113
▁салыышкын	-10.8114
▁один	-10.8115
▁Ломоносов	-10.812
▁хүнүн	-10.812
уун	-10.8122
▁вектер	-10.8124
дүрер	-10.8126
▁Россий	-10.8127
We	-10.8128
▁Аргентина	-10.8136
хеме	-10.8139
▁дузалакчызы	-10.814
▁чыды	-10.8141
ide	-10.8141
▁оюннарының	-10.8143
▁хүннү	-10.8144
▁Рассказы	-10.8144
▁хлеб	-10.8147
еттер	-10.8149
эв	-10.815
Or	-10.815
▁Доңгак	-10.8152
Элегес	-10.8155
▁Дом	-10.8156
бат	-10.8156
душ	-10.8164
▁органнар	-10.8169
▁хандыкшыл	-10.8174
1913	-10.8177
Хадың	-10.8181
▁Ne	-10.8181
▁Bu	-10.8183
▁Академия	-10.8183
▁артистер	-10.8185
▁рим	-10.8188
▁номун	-10.8191
уннар	-10.8195
▁комитет	-10.82
демдек	-10.8203
▁культураның	-10.8203
эвээш	-10.8204
▁(7	-10.8204
Чижээ	-10.8206
чис	-10.8208
▁отдел	-10.8209
▁федеральны	-10.8211
ницы	-10.8213
өнчү	-10.8214
ирт	-10.8218
▁Da	-10.822
лён	-10.8225
▁айыылдыг	-10.8225
▁камна	-10.8225
▁норма	-10.8231
▁Щ	-10.8238
dı	-10.8241
▁опер	-10.8242
инь	-10.8243
ическое	-10.8245
▁Ном	-10.8245
▁сагыл	-10.8248
Нина	-10.8255
▁чаштар	-10.8257
▁чартыында	-10.8259
ЛИ	-10.8265
глелдер	-10.8269
▁(20	-10.827
сеткүүл	-10.8279
түрк	-10.8281
гэ	-10.8283
еңээ	-10.8285
▁хөөмейжилер	-10.8285
▁грамм	-10.829
▁официал	-10.8292
буз	-10.8293
▁дезип	-10.8293
таарымча	-10.8294
Рембрандт	-10.8294
ɔ	-10.8294
Геннадий	-10.8294
Кузнецов	-10.8294
▁Тодоренко	-10.8294
▁архитектор	-10.8294
▁водород	-10.8294
▁использова	-10.8294
▁справочник	-10.8294
▁балыгланган	-10.8294
Уильям	-10.8294
▁деткип	-10.8294
▁урожа	-10.8294
▁ѳске	-10.8295
▁символ	-10.8295
▁магистр	-10.8295
▁Андреевна	-10.8295
▁сержант	-10.8295
▁экижидер	-10.8295
+	-10.8295
▁вагон	-10.8296
▁каапкаш	-10.8297
▁Way	-10.8297
▁лигазы	-10.8298
▁арттырар	-10.8298
Аттары	-10.8299
▁(1982)	-10.8299
▁(1980)	-10.8299
Ажылдары	-10.8299
▁читкен	-10.8299
▁ылгалдыг	-10.83
▁Маркина	-10.8301
▁куу	-10.8302
вший	-10.8302
▁физиктиг	-10.8304
▁сыын	-10.8305
▁Род	-10.8305
▁дылдарга	-10.8308
▁школаларынга	-10.8309
▁судур	-10.831
▁таңды	-10.831
ьного	-10.8311
▁витаминнер	-10.8311
селен	-10.8311
Апрель	-10.8313
автобус	-10.8313
социалистиг	-10.8314
▁оюннары	-10.8318
▁немээр	-10.8321
▁удурткан	-10.8322
ton	-10.8322
▁день	-10.8325
▁Кир	-10.8327
▁удуртур	-10.833
▁орай	-10.8332
Дом	-10.8332
▁чемге	-10.8337
▁эртемдээн	-10.8342
▁кубогу	-10.8342
pl	-10.8348
уннуң	-10.8352
▁Минусинск	-10.8354
▁өскерлип	-10.8355
▁(6	-10.8356
▁эрии	-10.8359
▁Швейцария	-10.8359
▁Эми	-10.836
транс	-10.836
▁человека	-10.8361
▁ашта	-10.8368
уля	-10.8368
tan	-10.8368
▁аспирантура	-10.8369
▁төрези	-10.8369
▁Чечен	-10.8373
▁башка	-10.8374
контр	-10.8375
үлүү	-10.8376
стрел	-10.8378
ОО	-10.8379
сорук	-10.8382
▁групп	-10.8383
план	-10.8384
▁там	-10.8385
Авазы	-10.8386
▁бүдүрүлгези	-10.8387
1923	-10.8387
латкан	-10.8388
ись	-10.8389
▁ээлери	-10.839
▁авазының	-10.8404
▁негелделер	-10.8406
▁өлүрер	-10.8406
▁редакция	-10.8408
▁саржаг	-10.841
була	-10.8419
▁Эвилелини	-10.8419
▁бүрүнү	-10.8421
▁дайынынга	-10.8424
рама	-10.8424
Төре	-10.8425
▁филолог	-10.8427
чимис	-10.8427
него	-10.843
ометр	-10.8439
қа	-10.844
▁номнарны	-10.8442
▁эргени	-10.8444
Сөөлгү	-10.8445
хлеб	-10.8446
тайылбыр	-10.8446
Ачазы	-10.8448
Сергей	-10.8448
кыдат	-10.845
хүлээлге	-10.8451
Буян	-10.8453
▁Ибн	-10.8453
АКШ	-10.8454
кчилери	-10.8456
▁хемчээлдер	-10.8456
▁дес	-10.8456
Ийиги	-10.846
зур	-10.846
кино	-10.8467
мең	-10.8468
Германия	-10.8469
төлдү	-10.8471
▁Дыл	-10.8477
чыскаал	-10.8482
Кышкы	-10.8482
▁чайгаар	-10.8484
ымны	-10.8485
авт	-10.8491
чиик	-10.8492
ЕН	-10.8498
уруу	-10.8499
ительны	-10.8501
▁Хай	-10.8501
XIX	-10.8504
?"	-10.8504
▁Херээжен	-10.8505
радыр	-10.8505
ight	-10.8506
1934	-10.8511
▁буддист	-10.8513
fi	-10.8513
шала	-10.8514
ттирген	-10.8517
▁күжениишкин	-10.8518
▁чагы	-10.8519
▁соңгаар	-10.8519
эрте	-10.8522
Сен	-10.8522
▁150	-10.8524
▁доблест	-10.8525
ттинмес	-10.8526
IV	-10.8527
ографтыг	-10.8528
▁дустар	-10.8529
▁кер	-10.8529
корреспондент	-10.853
сөөлзүреди	-10.8532
нструктор	-10.8532
▁идекпейли	-10.8532
▁названий	-10.8532
▁наименовани	-10.8532
▁продукции	-10.8532
▁нокаут	-10.8532
▁чыгган	-10.8532
▁үнүүшкүнү	-10.8532
▁москва	-10.8533
интернат	-10.8533
▁лингвист	-10.8533
▁индий	-10.8533
▁чалыы	-10.8533
▁харыысалгалыг	-10.8533
▁муниципалдыг	-10.8533
▁титул	-10.8533
▁Средне	-10.8534
Бүрен	-10.8534
▁холуксаа	-10.8534
Кафка	-10.8534
▁доцентизи	-10.8534
▁облазын	-10.8534
▁(1979)	-10.8536
▁Комбу	-10.8536
▁(1973)	-10.8536
▁туткаш	-10.8537
▁(2016)	-10.8538
▁үндезиннери	-10.8539
очник	-10.8539
▁уну	-10.854
▁чыглып	-10.854
▁ros	-10.854
шыдалдыг	-10.8542
▁демниг	-10.8542
ачам	-10.8542
увус	-10.8542
техниктиг	-10.8543
Якут	-10.8549
▁четкизи	-10.8549
▁тургузуунче	-10.855
▁ылгап	-10.855
▁Владимирович	-10.855
▁хамаатылары	-10.8551
▁Южно	-10.8555
▁хер	-10.8555
тирип	-10.856
▁лекциялар	-10.8561
▁шура	-10.8567
▁лиц	-10.8571
▁дээп	-10.8573
▁каң	-10.8574
шык	-10.8575
каттыштырар	-10.8575
▁шөлге	-10.8579
шыдал	-10.8581
Самбу	-10.8585
▁боттандырар	-10.8586
▁дагаа	-10.8589
▁черлеринге	-10.8595
▁дузалаар	-10.8596
let	-10.8596
uz	-10.8601
▁Тув	-10.8607
▁Герман	-10.8611
▁Федерациязын	-10.8611
▁бажының	-10.8611
▁факультединге	-10.8611
сеткилдиң	-10.8615
лица	-10.8616
▁дүвү	-10.8617
чылча	-10.862
Максимова	-10.8622
▁слова	-10.8624
Дайынчы	-10.8628
▁адырлары	-10.8632
▁үрээр	-10.8635
▁дүжүметтер	-10.8635
▁тургустунар	-10.8638
▁пра	-10.8639
▁девискээрин	-10.8641
▁Беш	-10.8644
▁Моск	-10.8644
кадыг	-10.8647
▁Хову	-10.8648
▁ала	-10.8651
▁чөпшээре	-10.8658
▁дуй	-10.866
▁солуну	-10.866
▁Чамдыкта	-10.8668
▁классты	-10.8671
ткеш	-10.8672
Бак	-10.8673
▁фамилия	-10.8673
Амыр	-10.8677
▁оюну	-10.8684
▁албанын	-10.8684
ования	-10.8686
şı	-10.8686
nda	-10.8687
▁хөлдү	-10.8687
карактар	-10.8688
кичээнгей	-10.869
▁төрүттүнгеннер	-10.869
леринге	-10.8694
Чечен	-10.8695
Краснодар	-10.8696
▁Пра	-10.8697
түңнел	-10.8697
▁Түрктер	-10.8701
Bir	-10.8702
▁чору	-10.8702
▁хоорайдан	-10.8704
херээ	-10.8704
▁кадрлар	-10.8706
▁дүгжү	-10.8706
Un	-10.8708
▁Бурунгу	-10.8709
политиктиг	-10.8711
бараан	-10.8712
▁кезээнде	-10.8721
Хей	-10.8722
4)	-10.8723
▁эмнер	-10.8724
тыргаш	-10.8728
▁Кало	-10.873
▁удазын	-10.8736
▁чорда	-10.8741
допчу	-10.8743
men	-10.8743
▁мог	-10.8744
роб	-10.8746
▁аяны	-10.8747
▁мырыңай	-10.8751
▁цел	-10.8752
Урал	-10.8752
лыс	-10.8753
▁больш	-10.8753
билии	-10.876
▁куштар	-10.8761
ИЯ	-10.8763
▁поезд	-10.8763
▁Han	-10.8772
инвалид	-10.8772
ry	-10.8774
ҡ	-10.8776
م	-10.8776
ā	-10.8776
Бөдүүн	-10.8776
ҙ	-10.8776
▁International	-10.8776
▁Академии	-10.8776
▁Хандагайты	-10.8776
▁бүдүрүп	-10.8776
▁очулдуруп	-10.8776
ས	-10.8776
▁Ярослав	-10.8776
Ынакшыл	-10.8776
▁ракета	-10.8776
▁палатазы	-10.8776
▁чуваш	-10.8776
▁Георгий	-10.8776
▁бассейн	-10.8776
Чингис	-10.8777
▁космос	-10.8777
▁эжелекчилер	-10.8777
▁европей	-10.8777
Сборник	-10.8777
ющих	-10.8777
▁ажыдыышкыны	-10.8777
▁Эрте	-10.8777
Немец	-10.8777
▁Дондук	-10.8778
Шойгу	-10.8778
хомус	-10.8778
▁получил	-10.8779
▁солуур	-10.8779
Ёзу	-10.8779
▁эртен	-10.8779
истелге	-10.8779
Türkiye	-10.878
▁перевод	-10.878
▁эгелей	-10.8783
▁большой	-10.8783
ыышкыны	-10.8783
▁шүлүкчүлер	-10.8784
▁шиитпирлээр	-10.8784
▁Бурятии	-10.8785
▁чажар	-10.8786
▁Усть	-10.8787
ирин	-10.8788
▁эрин	-10.8789
▁баткан	-10.8789
▁айтыышкыны	-10.879
Московски	-10.8791
кыска	-10.8791
▁барааннар	-10.8794
Атлант	-10.8794
tic	-10.8796
▁дыт	-10.8796
▁ханды	-10.8797
ству	-10.8798
▁чуруу	-10.8801
▁Казан	-10.8802
сед	-10.8803
Fight	-10.8803
өкпе	-10.8809
ртаакы	-10.8809
куду	-10.8812
▁сагып	-10.8812
▁Кандыг	-10.8813
туруп	-10.8814
▁кылырда	-10.8817
▁ынакшылы	-10.8819
▁көрей	-10.8821
▁турум	-10.8823
▁аза	-10.8828
▁фамилиязы	-10.8828
▁кадып	-10.8829
ленген	-10.8833
быт	-10.8836
▁Магнитогорск	-10.8836
чалгыглар	-10.8837
pi	-10.8838
▁чогаадылга	-10.8838
▁котор	-10.8843
▁юрист	-10.8844
видео	-10.8846
▁байырлалдар	-10.8846
бүдүү	-10.8848
Хөө	-10.8848
первы	-10.8848
▁член	-10.8849
▁бижиин	-10.8852
Философия	-10.8852
алчак	-10.8859
чөпшээрел	-10.8861
Кали	-10.8861
▁өкпе	-10.8861
▁кезээн	-10.8863
▁кафедразын	-10.8864
üz	-10.8872
Бурят	-10.8872
▁тувинской	-10.8876
Дажы	-10.8876
хоп	-10.8877
▁комитета	-10.8877
▁болдур	-10.8879
тунган	-10.8881
▁падежи	-10.8882
Потанин	-10.8886
ттинип	-10.8887
▁науч	-10.8888
лири	-10.8888
ian	-10.8888
estr	-10.8888
1928	-10.8893
▁ыракта	-10.8898
▁Государственно	-10.89
1904	-10.8901
▁ашакка	-10.8906
өрүүр	-10.8908
1916	-10.8909
tı	-10.891
Дон	-10.8913
даян	-10.8915
хомудал	-10.8915
кчылары	-10.8919
▁холга	-10.892
▁өөрен	-10.8922
▁философиязы	-10.8925
Чок	-10.8925
▁шимчээшкини	-10.8935
ant	-10.8936
▁бээрин	-10.8945
берт	-10.8945
▁дидим	-10.8947
Америка	-10.8953
Ооржак	-10.8953
херээжен	-10.8954
айтырыг	-10.8954
театр	-10.8954
школа	-10.8954
Кажан	-10.8956
үстү	-10.8958
тоолдуң	-10.8958
▁дис	-10.8959
▁чадаг	-10.8961
▁черинден	-10.8963
чаза	-10.8965
▁ТК	-10.8966
Любовь	-10.8967
▁кадыкшыл	-10.8968
алдан	-10.8975
▁кес	-10.8976
Al	-10.8978
даңзы	-10.8979
▁байырлалы	-10.899
▁команд	-10.899
▁шаңналды	-10.8995
дой	-10.8995
sti	-10.8997
▁кызып	-10.9004
▁шиш	-10.901
▁бодалын	-10.9011
ive	-10.9011
Уругвайның	-10.9011
▁Полит	-10.9014
изации	-10.9014
▁тургус	-10.9014
▁Мир	-10.9015
▁геолог	-10.9017
▁чартыын	-10.9025
▁кулак	-10.9026
мурнакчы	-10.9026
▁аппарат	-10.9026
Тоньукук	-10.9026
Хомушку	-10.9026
▁Бөлгүм	-10.9026
▁Оренбург	-10.9026
▁Университеди	-10.9026
▁памяти	-10.9026
▁пособие	-10.9026
▁языкознания	-10.9026
ʏ	-10.9026
губернатор	-10.9026
▁ужудуушкун	-10.9026
▁өскерлиишкиннер	-10.9026
▁структур	-10.9026
▁булуттар	-10.9026
▁кемдээшкин	-10.9026
▁Булгар	-10.9026
▁самбыра	-10.9027
▁райком	-10.9027
▁любовь	-10.9027
▁градус	-10.9027
▁тыттырган	-10.9027
Валерия	-10.9027
▁Араб	-10.9027
Юпитер	-10.9027
▁сайзырадып	-10.9027
▁сыгыр	-10.9027
▁Герцен	-10.9028
▁работала	-10.9028
▁Саратов	-10.9028
▁бербес	-10.9029
▁падежинде	-10.9029
▁шүлүү	-10.9029
▁You	-10.9029
Султан	-10.903
▁оператор	-10.903
▁хөөмейжизи	-10.9031
▁халдаар	-10.9031
▁салгалдары	-10.9031
славян	-10.9032
▁портал	-10.9033
▁материалдыг	-10.9034
▁кыжын	-10.9036
▁төндүр	-10.9036
▁Юлия	-10.9036
▁хээлер	-10.9038
▁механика	-10.9039
▁сериин	-10.904
▁маргылдаазынга	-10.9042
▁харыылап	-10.9042
▁дамчып	-10.9042
▁кежинден	-10.9043
▁эзер	-10.9043
Француз	-10.9044
▁хөөмейжи	-10.9046
▁ниитилели	-10.9047
▁буурап	-10.9049
▁агымы	-10.9053
ишти	-10.9054
▁херээнге	-10.9058
практиктиг	-10.9058
▁роли	-10.9061
▁хоюг	-10.9062
нарлыг	-10.9063
▁связи	-10.9064
▁көрүш	-10.9067
буянын	-10.9068
▁эжик	-10.9068
тарай	-10.9071
оорга	-10.9073
ja	-10.9076
▁кезээнге	-10.9076
▁ёзузу	-10.9078
ханов	-10.9079
октуг	-10.908
тиӊ	-10.9082
▁зем	-10.9088
▁Сара	-10.9089
▁үрезини	-10.9092
▁мире	-10.9096
▁хуузун	-10.9098
Tu	-10.9102
▁ойта	-10.9107
▁1904	-10.9111
▁женщины	-10.9113
▁Шан	-10.9115
▁кижиден	-10.9118
Кум	-10.9119
кичээнгейлиг	-10.9126
ОЛ	-10.9126
оведение	-10.9127
▁чарлаар	-10.9128
▁түрктерниң	-10.9129
оруктуң	-10.9131
Өөредиг	-10.9131
▁Азербайджан	-10.9134
Шай	-10.9143
Бис	-10.9143
боолап	-10.9147
медерелди	-10.9147
оран	-10.9151
▁дугуржу	-10.9154
адаан	-10.9156
▁зона	-10.9157
kh	-10.9158
▁эгелээрге	-10.9161
▁аалдар	-10.9162
▁шөлдер	-10.9165
чузу	-10.9165
▁дүрүмнери	-10.9178
▁экспедициязы	-10.9189
троп	-10.9195
▁Берн	-10.9197
хова	-10.9208
тодаргай	-10.921
Холу	-10.9212
ör	-10.9213
▁лаборатория	-10.9213
Тыв	-10.9215
Бодунуң	-10.9216
КИ	-10.9216
чээрби	-10.9216
▁ажылдарның	-10.9217
▁чамдыызы	-10.9218
Михаил	-10.9219
цева	-10.9221
сывы	-10.9222
парламент	-10.9223
▁Август	-10.9224
дораан	-10.9227
кезек	-10.9229
▁пат	-10.923
▁уду	-10.923
морф	-10.9236
▁Кош	-10.9236
▁литератураның	-10.9236
▁1903	-10.9237
▁чажып	-10.9241
аваан	-10.9246
марка	-10.9248
тация	-10.9248
▁музейниң	-10.9252
▁чүктен	-10.9256
▁агым	-10.9258
▁ашаан	-10.9261
өөлүнде	-10.9262
Белек	-10.9265
беди	-10.9267
бит	-10.9267
▁Аржаан	-10.9267
сагыжын	-10.9271
fer	-10.9272
чатка	-10.9273
▁комиссия	-10.9276
Адазы	-10.9277
▁нептер	-10.928
Хоойлу	-10.9282
бүрүн	-10.9282
▁хөгж	-10.9283
▁комбинады	-10.9283
ВЛКСМ	-10.9283
хөвең	-10.9283
эвилең	-10.9283
▁Комитеди	-10.9283
▁Сафьянов	-10.9283
▁балетмейстер	-10.9283
▁исследований	-10.9283
▁предприяти	-10.9283
▁продюсер	-10.9283
▁сөөртүр	-10.9283
▁хайындырып	-10.9283
▁персонаж	-10.9283
Сундуй	-10.9283
чемненир	-10.9283
▁биографически	-10.9283
▁организации	-10.9283
▁деятельность	-10.9283
▁Ынчалдыр	-10.9283
▁Анатолий	-10.9283
▁формула	-10.9284
▁Зидан	-10.9284
Семён	-10.9284
▁эттирип	-10.9284
▁тырттырган	-10.9284
▁дүжүрүп	-10.9284
вших	-10.9284
▁спирт	-10.9285
▁Егор	-10.9286
▁оюннарын	-10.9286
▁(1977)	-10.9286
▁тодараткан	-10.9286
▁археологтуг	-10.9287
▁өөреникчизи	-10.9287
▁диалектилер	-10.9287
▁1907	-10.9288
▁Яковлевна	-10.9288
▁выход	-10.9289
▁секретарь	-10.929
▁акылары	-10.929
ложение	-10.929
доскаар	-10.9291
▁немей	-10.9292
▁маңнаар	-10.9292
▁хааннар	-10.9294
▁достижения	-10.9294
▁тренерлери	-10.9295
зван	-10.9296
▁айтырып	-10.9299
▁результатов	-10.9299
ip	-10.93
ion	-10.93
Дылдар	-10.93
дерни	-10.9302
идик	-10.9303
▁чарган	-10.9303
▁пенсияже	-10.9304
мель	-10.9304
▁боксу	-10.9308
7.2018	-10.9308
▁Баш	-10.9308
çi	-10.9308
дающиеся	-10.9309
▁филиал	-10.9313
▁тиилекчи	-10.9314
кого	-10.932
үжен	-10.932
▁далайның	-10.9325
Тор	-10.9331
▁чалап	-10.9333
▁районунда	-10.9334
▁училищезинге	-10.9335
▁өзээн	-10.9336
▁халыышкын	-10.9338
▁херээн	-10.9338
▁чүткүл	-10.934
▁хоругдаан	-10.9341
чуг	-10.9344
оларның	-10.9345
▁систем	-10.9345
▁муж	-10.9347
▁кайыын	-10.9347
▁ылгаар	-10.9348
▁хайырла	-10.9348
▁системазын	-10.9351
▁(2012	-10.9358
▁лабораториязы	-10.9361
чедир	-10.9365
▁бора	-10.9367
майор	-10.9367
▁Нур	-10.9368
▁киржикчилер	-10.9369
▁алышкылар	-10.9371
▁тоолдары	-10.9379
ye	-10.9383
пейн	-10.9383
▁Кезек	-10.9393
▁эфир	-10.9396
▁Ийиги	-10.94
Аймак	-10.9401
Фил	-10.9402
▁күчү	-10.9404
▁Хол	-10.9405
▁Эге	-10.9405
▁Якутия	-10.9406
ангы	-10.9417
▁кадарчы	-10.942
▁арыглаар	-10.9436
▁өөредиин	-10.9436
▁побед	-10.9441
хуузун	-10.9441
▁шимчээшкиннер	-10.9442
▁хувискаал	-10.9449
енные	-10.9451
соавт	-10.9451
▁чемпионата	-10.9457
▁Sh	-10.9459
ial	-10.9463
ИИ	-10.9468
лашкан	-10.9476
Италия	-10.9479
▁чыы	-10.9482
город	-10.9483
режиссёр	-10.9484
шоолуг	-10.9485
бүдүрүлге	-10.9486
Восточн	-10.9486
хөгжүм	-10.9487
Дээди	-10.9487
чүдүлге	-10.9489
дакпыр	-10.9489
▁частырыг	-10.9498
ity	-10.9507
сураглыг	-10.9508
▁бижек	-10.951
▁кызыгаарын	-10.951
▁VIII	-10.9513
Беш	-10.9516
▁Бра	-10.9516
косм	-10.9517
Сүт	-10.952
▁5-8	-10.9522
хандырылга	-10.9527
дайзын	-10.9527
ger	-10.9533
▁Чар	-10.9534
▁хоран	-10.9535
▁Award	-10.9536
lla	-10.9536
▁боорда	-10.9539
сыны	-10.9541
маадыр	-10.9544
▁XVI	-10.9545
Russia	-10.9546
Австралия	-10.9546
Венгрия	-10.9546
Учёные	-10.9546
харылзажыр	-10.9546
▁America	-10.9546
▁Обручев	-10.9546
▁коллегия	-10.9546
▁развитии	-10.9546
▁тураскаадып	-10.9546
▁эдилекчилери	-10.9546
▁эпизод	-10.9546
▁шенелде	-10.9546
Египет	-10.9546
Клавдия	-10.9546
▁начальниги	-10.9546
▁салдынган	-10.9546
▁чагыртып	-10.9546
шииткекчи	-10.9546
▁Данилин	-10.9546
▁взвод	-10.9546
Собрание	-10.9546
Динамо	-10.9546
▁РЭА	-10.9546
▁дескинип	-10.9546
углерод	-10.9546
port	-10.9546
▁Баштыңы	-10.9546
▁кежер	-10.9546
довурак	-10.9546
▁(1934)	-10.9546
▁эрттип	-10.9547
▁деканы	-10.9547
▁рассказы	-10.9547
▁үндезилекчилери	-10.9547
▁Ганди	-10.9547
back	-10.9547
▁Хайдып	-10.9548
▁Сергеевич	-10.9548
▁Алдыы	-10.9548
▁поляк	-10.9549
▁(25	-10.9549
безин	-10.9549
ind	-10.9549
▁Монгушевна	-10.9549
▁төнчү	-10.955
Көрей	-10.955
▁(1972)	-10.955
▁Журнал	-10.955
▁(1976)	-10.955
▁тро	-10.9551
▁санитар	-10.9551
▁чогун	-10.9551
▁чугаазында	-10.9552
▁империя	-10.9552
▁ортузунга	-10.9553
▁эвенки	-10.9553
▁доблесть	-10.9554
Ник	-10.9554
▁чүвелер	-10.9555
Алдан	-10.9555
▁Тээли	-10.9555
▁шаңнаан	-10.9556
▁чарыжы	-10.9556
▁караан	-10.9556
▁Владимировна	-10.9558
▁тайылбырлаан	-10.9559
▁пара	-10.956
Анай	-10.9561
▁тураскаалы	-10.9562
Историческ	-10.9563
▁сорулгалыг	-10.9563
▁Na	-10.9565
дужаалды	-10.9566
▁Москве	-10.9567
▁составын	-10.9568
▁Богда	-10.9571
▁адай	-10.9571
▁девискээрлер	-10.9571
1952	-10.9571
Чижектер	-10.9573
▁көдүрер	-10.9574
▁деңнеп	-10.9575
ООЛ	-10.9576
▁чоруурлар	-10.9578
нмейн	-10.9579
▁кылдыныг	-10.9579
үндүр	-10.958
ies	-10.9583
Тускай	-10.9583
600	-10.9584
▁боттуг	-10.9585
▁Хөндергей	-10.9587
use	-10.9588
ep	-10.9588
▁свой	-10.9589
▁ыраажылар	-10.959
▁башкирлер	-10.959
▁атом	-10.9592
▁шимчеп	-10.9593
▁Сочи	-10.9596
▁чүзүн	-10.9598
XV	-10.9601
хепти	-10.9602
Мир	-10.9602
▁страниц	-10.9603
элдеп	-10.9603
▁Күжүгет	-10.9605
лини	-10.9608
доруг	-10.9611
Su	-10.9612
ık	-10.9613
Бес	-10.9615
▁Ынча	-10.9616
▁тарадыр	-10.9617
▁уругларны	-10.9622
▁эксперт	-10.9623
март	-10.9624
оннуг	-10.9629
▁решение	-10.9629
!"	-10.9629
▁бажыңга	-10.963
▁үндүрүг	-10.9631
өйлеп	-10.9634
ül	-10.9638
турган	-10.9639
▁Пан	-10.964
▁En	-10.9641
▁хуусаазы	-10.9642
▁харлыындан	-10.9647
▁аарыгларга	-10.9647
▁Рос	-10.9647
▁шык	-10.9649
▁Колдуунда	-10.965
знач	-10.9654
▁(13	-10.9656
up	-10.9664
ларындан	-10.9665
▁Чыргал	-10.9669
▁Альберт	-10.9669
▁фонетика	-10.9672
кыл	-10.9672
▁бадар	-10.9675
5-6	-10.968
▁пьес	-10.9684
▁араттар	-10.9691
▁секретар	-10.9691
▁ажар	-10.9693
Багай	-10.9693
▁(1995	-10.9695
▁эксперимент	-10.9696
хүндү	-10.9696
▁Павел	-10.9697
▁Сес	-10.9698
▁создани	-10.9699
▁автомобиль	-10.9705
өндүр	-10.9705
▁амдан	-10.972
▁удуур	-10.972
еңге	-10.9722
▁көңгүс	-10.9724
▁металлургия	-10.9724
▁октябрьда	-10.9731
кайгамчыктыг	-10.9734
ыдылга	-10.9735
▁Николаев	-10.9737
Чурук	-10.9742
ili	-10.9746
▁орнун	-10.975
Баб	-10.9753
▁дылдарны	-10.9755
▁томуйла	-10.976
▁кышкы	-10.976
чыыр	-10.976
▁Алаш	-10.9762
хамааты	-10.9762
▁болурунга	-10.9762
▁Гос	-10.9764
Юрий	-10.9764
Ç	-10.9765
ять	-10.9765
▁1909	-10.977
▁хөмүр	-10.977
Тофалар	-10.9772
ирип	-10.9776
тпейн	-10.978
▁сугну	-10.9783
▁дажы	-10.9787
Чижек	-10.979
Шагаа	-10.9793
шалың	-10.9793
сут	-10.9794
▁призёр	-10.9798
Бирги	-10.9798
Роман	-10.9799
әр	-10.9803
▁машин	-10.9806
▁статистика	-10.9808
щё	-10.9809
1869	-10.9815
итературлуг	-10.9816
▁Кечил	-10.9816
î	-10.9816
Человек	-10.9816
квартира	-10.9816
▁Machine	-10.9816
▁Коммунисти	-10.9816
▁император	-10.9816
▁комиссар	-10.9816
▁көзүлбес	-10.9816
▁тергииде	-10.9816
▁чөвүлекчизи	-10.9816
▁өскүс	-10.9816
ɵ	-10.9816
▁грамматика	-10.9816
Шүлүкчү	-10.9816
▁Ильич	-10.9816
▁сүмелээн	-10.9816
▁очень	-10.9816
▁сыртык	-10.9816
▁Дункан	-10.9816
▁херелдери	-10.9816
Кубань	-10.9817
▁Энциклопедия	-10.9817
▁Аранчын	-10.9817
Пётр	-10.9817
▁куб	-10.9817
Основ	-10.9817
▁шыдаваан	-10.9817
▁өөренгеш	-10.9818
▁предисл	-10.9818
▁крест	-10.9818
Филология	-10.9818
▁тулган	-10.9819
▁секунда	-10.9819
▁(1988)	-10.9819
▁Антонина	-10.982
▁056	-10.982
араатан	-10.9821
▁живо	-10.9821
▁Канада	-10.9822
▁тарина	-10.9822
Современн	-10.9822
▁будет	-10.9823
Саха	-10.9823
▁уттуруп	-10.9825
▁билген	-10.9826
▁чавыс	-10.9827
▁Аныяктар	-10.9827
▁партиязы	-10.9827
лампа	-10.9828
гимнастика	-10.9829
1878	-10.9831
Хууда	-10.9832
Дыт	-10.9833
моондак	-10.9837
Ѳг	-10.9837
▁сөзүглел	-10.9838
▁Парижке	-10.9839
Тала	-10.9839
▁домактар	-10.984
▁дээни	-10.9843
▁бокска	-10.9844
▁чуртунче	-10.9846
овской	-10.9847
▁чоннары	-10.9847
▁өскерилген	-10.9847
▁фильмнер	-10.9848
лежип	-10.9849
аптар	-10.985
▁(24	-10.985
▁шаңналдың	-10.985
▁код	-10.9851
имир	-10.9853
▁Днепропетровск	-10.9853
бойдузу	-10.9853
▁хадың	-10.9857
▁ушта	-10.9858
соңгу	-10.9858
▁работу	-10.986
ass	-10.9861
▁Грач	-10.9863
▁чартыы	-10.9866
үрезин	-10.9867
▁Куда	-10.9873
2020	-10.9874
▁клазын	-10.9874
уксаа	-10.9875
Василиса	-10.9881
дүк	-10.9886
▁сентябрьда	-10.9887
▁казар	-10.989
▁Япон	-10.9891
▁женщина	-10.9892
хөреңгизин	-10.9893
▁Гар	-10.9893
медерел	-10.9895
▁шылгарал	-10.9896
▁(11	-10.9897
▁Баку	-10.9898
▁оруктар	-10.99
▁эгезинден	-10.99
▁национально	-10.9904
▁Григори	-10.9905
чыгаш	-10.9915
▁Команд	-10.9918
▁музейиниң	-10.9919
Эрткен	-10.992
Каа	-10.993
бээр	-10.9932
▁бөлүүн	-10.9933
камгалал	-10.9936
иезинге	-10.9937
▁күзе	-10.994
ің	-10.9942
▁турза	-10.9948
Аз	-10.9952
▁почта	-10.9953
▁часты	-10.9956
▁ТН	-10.9956
сред	-10.9957
▁Вестник	-10.9962
▁Павл	-10.9962
▁Международно	-10.9964
▁келин	-10.9965
долу	-10.9967
▁болганындан	-10.9967
▁айтырыгга	-10.9969
Архив	-10.9971
▁кый	-10.9972
стыг	-10.9976
▁сөөктер	-10.998
Глав	-10.9981
▁XII	-10.9986
▁ветеран	-10.9986
мил	-10.9988
▁корабль	-10.9989
согур	-10.9994
▁надо	-10.9995
▁монографиялар	-10.9998
▁делгереңгей	-10.9999
▁төгерик	-11.0003
nde	-11.0004
dir	-11.0014
ance	-11.0014
отряд	-11.0015
Кат	-11.0018
▁кылын	-11.0025
черле	-11.0027
▁самолёт	-11.0027
боттуң	-11.0028
ster	-11.0029
▁изии	-11.003
Аарыг	-11.0035
one	-11.0037
▁шинчилекчилери	-11.004
ЕВ	-11.0041
▁илеткел	-11.0043
тарылга	-11.0044
▁отношени	-11.0046
▁Жа	-11.0047
▁хүрээлер	-11.0048
Музей	-11.0048
Елена	-11.005
Шериг	-11.005
Ынчалза	-11.005
дөмей	-11.005
сентябрь	-11.005
август	-11.0051
▁техникум	-11.0051
Якутия	-11.006
кижизидилге	-11.0062
чигир	-11.0063
уран	-11.0069
▁Бурганның	-11.007
хире	-11.0072
▁сери	-11.0076
▁тураскаалдар	-11.0077
вези	-11.0086
Кежиг	-11.0086
▁сериал	-11.0087
▁ызыгуур	-11.0087
Под	-11.009
▁дагның	-11.0091
Спартак	-11.0094
коргунчуг	-11.0094
урянхай	-11.0094
ب	-11.0094
▁York	-11.0094
▁problem	-11.0094
▁Сайыттар	-11.0094
▁обязательств	-11.0094
▁показатели	-11.0094
▁таарышпас	-11.0094
▁быштак	-11.0094
▁прокурор	-11.0094
▁Венера	-11.0094
▁сыңмас	-11.0094
▁флоду	-11.0094
▁Пиаф	-11.0094
ЦСКА	-11.0094
▁дайылдажып	-11.0094
▁параметр	-11.0094
▁высоко	-11.0094
разработк	-11.0094
▁социалистически	-11.0094
▁станица	-11.0094
▁Надя	-11.0094
▁Russian	-11.0094
▁тейлеп	-11.0094
{{	-11.0095
▁делегады	-11.0095
▁буддийжи	-11.0095
}}	-11.0095
▁сыннар	-11.0095
Ыяш	-11.0095
ыяап	-11.0095
фронтуже	-11.0095
▁Сталинград	-11.0095
▁нескольк	-11.0095
▁контракт	-11.0096
▁(1962)	-11.0096
▁удурланыышкын	-11.0096
▁студентилер	-11.0097
▁(1963)	-11.0098
▁дузалажыр	-11.0098
чалаң	-11.0098
▁чаңныг	-11.0098
▁эвези	-11.0098
▁салгаш	-11.0101
▁кылбас	-11.0102
▁салбыр	-11.0102
▁коллекция	-11.0103
▁чогуш	-11.0105
▁азыраар	-11.0105
▁Таян	-11.0106
▁камгаланы	-11.0106
▁полит	-11.0106
▁фронтузу	-11.0106
Гагарин	-11.0107
▁опыт	-11.0107
▁болгу	-11.0108
Дубо	-11.011
SO	-11.0112
болур	-11.0112
▁килограммов	-11.0113
▁керээзи	-11.0115
ачёв	-11.0117
▁кежир	-11.0127
▁бөлүүнге	-11.0127
▁малгаш	-11.0127
▁кыстар	-11.0128
▁сүр	-11.0131
▁узуткаан	-11.0131
▁айтырыгларын	-11.0131
▁саналдаан	-11.0132
ure	-11.0133
▁бодалга	-11.0135
▁деңне	-11.0141
Марк	-11.0143
шпи	-11.0144
сагыжы	-11.0146
▁чиң	-11.0146
Тываларның	-11.0148
хөөн	-11.0149
▁капитаны	-11.0152
▁клувун	-11.0156
▁температуразы	-11.0157
Седен	-11.0162
▁und	-11.0165
Хунну	-11.0166
▁городе	-11.0172
chen	-11.0172
хэ	-11.0174
▁Çocuk	-11.0176
азырал	-11.0177
хереглел	-11.0183
▁деңге	-11.0185
ющие	-11.0195
вице	-11.0199
▁ораннар	-11.0202
▁чуртталгазының	-11.0203
акшаны	-11.0203
▁температура	-11.0208
Якутск	-11.0208
▁шар	-11.021
▁өөредии	-11.0211
▁черинче	-11.0215
ayı	-11.0218
талыр	-11.0231
бүзүрел	-11.0238
Хара	-11.0239
артыы	-11.0244
ыышкыннар	-11.0245
скому	-11.0245
▁(2008	-11.025
кичээл	-11.0254
Балык	-11.0254
дажыыр	-11.0255
▁сый	-11.026
хир	-11.0263
ттинер	-11.0265
таланты	-11.0265
▁ажылдакчыларының	-11.0269
ниитичи	-11.0272
ner	-11.0274
Химик	-11.0274
Турция	-11.0286
▁херим	-11.0287
станок	-11.0287
кежии	-11.029
Миха	-11.0294
ПИ	-11.0295
▁хилинчекте	-11.0298
▁салдарын	-11.0298
▁Рай	-11.0298
▁(26	-11.03
чаңгы	-11.0302
▁делгелгези	-11.0304
Эрик	-11.0305
▁камер	-11.0307
эжик	-11.031
ющий	-11.031
▁таланың	-11.031
оптуг	-11.0319
▁XIV	-11.0323
сүт	-11.0323
▁орну	-11.0328
нмайн	-11.0329
шпес	-11.0331
▁3000	-11.0339
эль	-11.0343
▁мергежилди	-11.0344
▁чылдагааннар	-11.0344
кежээ	-11.0344
Ольга	-11.0345
Куулар	-11.0345
rin	-11.0345
оруу	-11.0345
одура	-11.0347
öz	-11.035
▁үстер	-11.0359
Pa	-11.0366
▁чоогу	-11.0367
движ	-11.0369
ёзу	-11.0371
▁тѳ	-11.0374
▁элезин	-11.0374
өглеп	-11.0377
эзилдир	-11.0379
Депутат	-11.038
Женщины	-11.038
Хөнделең	-11.038
▁(22.03.1966)	-11.038
▁Чоорту	-11.038
▁компьютер	-11.038
▁конференции	-11.038
▁память	-11.038
▁скульптор	-11.038
каттырынчыг	-11.038
▁бөмбүү	-11.038
▁шүгүмчүле	-11.038
▁Одесса	-11.038
▁Джордж	-11.038
▁өскертип	-11.038
мелегей	-11.038
Өшкү	-11.038
▁өскертир	-11.038
▁газета	-11.038
▁Зоя	-11.038
▁өртектиг	-11.038
▁ВКП	-11.038
▁башкарар	-11.038
▁фирма	-11.038
бодамча	-11.038
▁четкеш	-11.038
▁делегаттары	-11.0381
Мөңге	-11.0381
▁хонуп	-11.0381
▁бедидер	-11.0381
▁издание	-11.0381
▁маңнап	-11.0382
▁более	-11.0382
▁саанчылап	-11.0382
▁сайыт	-11.0382
Лессинг	-11.0383
▁(1944)	-11.0383
▁каггаш	-11.0383
Джеймс	-11.0383
▁эдилээр	-11.0384
500	-11.0384
▁лицей	-11.0385
▁Math	-11.0385
▁Шеми	-11.0386
▁Красного	-11.0388
гитара	-11.0388
ПРО	-11.0389
▁кавай	-11.039
льдиң	-11.0391
ланчак	-11.0392
▁хүндүлеп	-11.0393
Бичурин	-11.0395
▁астрономия	-11.0396
▁ору	-11.04
▁Кыдатта	-11.0401
▁Inst	-11.0402
РФ	-11.0404
хөглүг	-11.0409
совхозтуң	-11.0409
▁көдүр	-11.0413
▁Хүннүң	-11.0415
үргү	-11.0418
▁болбазы	-11.0424
▁канд	-11.0428
▁мил	-11.0429
ителя	-11.0433
▁Арал	-11.0434
▁Ставрополь	-11.0434
ağ	-11.0435
командир	-11.0435
Грек	-11.0436
тенек	-11.0438
▁чуве	-11.0439
▁аргазын	-11.0441
▁адары	-11.0443
Шаандагы	-11.0443
▁бригад	-11.0443
▁весе	-11.0445
''	-11.0449
▁Ga	-11.0452
▁языках	-11.0452
▁дылдарже	-11.0452
ақ	-11.0454
будук	-11.0462
▁Проблем	-11.0464
Die	-11.0467
mon	-11.047
▁ужа	-11.0475
▁идер	-11.0477
▁амыдыралынга	-11.0478
Право	-11.0479
▁деткимче	-11.0481
кижиниң	-11.0486
▁изучени	-11.0487
Чурукчу	-11.0492
▁Чодураа	-11.0494
мотор	-11.0495
▁эртемденнерниң	-11.0495
▁Пара	-11.0498
▁чуртталгазын	-11.0501
кызар	-11.0503
▁дүүштүр	-11.0504
Дем	-11.0505
▁производств	-11.0506
Косм	-11.0511
▁чарлыр	-11.0515
▁медицинада	-11.0516
көжээ	-11.0521
▁Орхон	-11.0526
▁клубтар	-11.0527
Сеп	-11.0527
▁форма	-11.0527
▁ачызы	-11.053
куу	-11.0531
▁эгелээннер	-11.0532
волюция	-11.0532
▁хааржак	-11.0533
▁амыдыралын	-11.0536
▁будун	-11.0537
▁ыяшты	-11.0553
▁технология	-11.0555
Эрге	-11.0556
▁(29	-11.0568
▁El	-11.0569
Кижилер	-11.0572
нүүр	-11.0581
▁сорулгалар	-11.0586
▁бисти	-11.0586
▁нерви	-11.0587
▁эртемденнери	-11.0587
▁чөвүлел	-11.0587
▁силерге	-11.0589
▁кичээлдер	-11.0589
зей	-11.0592
Рас	-11.0594
ажаар	-11.0595
▁санаашкыны	-11.0599
▁чогаадылгазы	-11.06
ѳрт	-11.0604
▁кысты	-11.061
▁Валентин	-11.061
Агаар	-11.0615
▁ЭА	-11.0621
▁хамнар	-11.0624
ted	-11.0624
чайла	-11.0628
Петербурге	-11.0628
▁номнуң	-11.0629
ьная	-11.0631
▁чайынна	-11.0636
чазыг	-11.064
Виктор	-11.0645
Евгени	-11.0645
Антон	-11.0645
хосталга	-11.0646
чымчак	-11.0647
мөңгүн	-11.0647
хостуг	-11.0648
▁үрели	-11.0653
ff	-11.0655
con	-11.0655
▁средне	-11.0655
буян	-11.0655
ирование	-11.0657
куб	-11.066
одной	-11.066
▁черлерин	-11.0661
химия	-11.0664
▁көш	-11.0665
▁между	-11.0666
Ё	-11.067
▁Br	-11.0672
▁үлегерле	-11.0672
Звезд	-11.0672
Уфа	-11.0673
күзел	-11.0673
ach	-11.0673
ттынмаан	-11.0674
ۡ	-11.0674
φ	-11.0674
Айседора	-11.0674
Маргылдаа	-11.0674
Моллеров	-11.0674
Самагалдай	-11.0674
Шагдыржап	-11.0674
Шаӊналдары	-11.0674
дөрбелчин	-11.0674
чүгүрүк	-11.0674
Қазақ	-11.0674
Ә	-11.0674
▁Mecmua	-11.0674
▁ансамбль	-11.0674
▁бүдүжү	-11.0674
▁кожумаа	-11.0674
▁ТывКУ	-11.0674
▁животноводства	-11.0674
▁Алексеевич	-11.0674
▁сборной	-11.0674
Ишимбай	-11.0674
▁Левитан	-11.0674
Октаргай	-11.0674
Ковалевская	-11.0674
▁кургадыр	-11.0674
Ислам	-11.0674
▁чыылда	-11.0674
Ыраажы	-11.0674
▁баштыңчы	-11.0674
▁сактыр	-11.0674
▁үлежип	-11.0675
▁таварышкаш	-11.0675
▁кидис	-11.0675
▁бадырар	-11.0675
▁чыылган	-11.0675
▁Андре	-11.0675
▁академии	-11.0675
▁туттунуп	-11.0675
▁флот	-11.0676
▁хүндүткелдиг	-11.0676
▁үелери	-11.0676
▁деңнелдиг	-11.0676
▁открыт	-11.0676
▁секция	-11.0677
▁халдап	-11.0677
▁сагындырар	-11.0677
▁сайзыраңгай	-11.0677
сураг	-11.0677
Пермь	-11.0677
▁кажар	-11.0678
Бөгүн	-11.0679
жылдап	-11.068
▁чыттыг	-11.068
щица	-11.068
Уруглар	-11.068
▁Коңгар	-11.0681
▁чарылган	-11.0681
хоочун	-11.0681
▁бижиири	-11.0681
▁үнелээр	-11.0682
▁Респ	-11.0682
шел	-11.0682
▁Гуля	-11.0682
▁литр	-11.0683
▁Самар	-11.0684
сук	-11.0685
▁самы	-11.0686
▁үндезилеп	-11.0687
Лас	-11.0687
▁чүдүп	-11.0688
▁куржаа	-11.0689
▁төктү	-11.0692
Roman	-11.0694
НИИ	-11.0695
▁кедип	-11.0695
шай	-11.0697
Республика	-11.0699
Уйгур	-11.07
▁унун	-11.0701
▁бадып	-11.0703
▁врач	-11.0704
▁Вена	-11.0704
▁арыглап	-11.0704
Калмык	-11.0712
октуң	-11.0713
дизе	-11.0717
▁Mu	-11.0718
hat	-11.0719
▁чуруун	-11.0719
▁Гре	-11.0723
Сайыр	-11.0726
▁актрисазы	-11.0728
▁өнчүзү	-11.0728
▁камгалакчызы	-11.0728
▁дайынга	-11.073
▁части	-11.0733
▁чолаачы	-11.0735
ждени	-11.0736
▁Мух	-11.0741
тулаа	-11.0749
▁очерки	-11.0751
▁сонуургаар	-11.0756
▁чидирер	-11.0758
▁бүрүлер	-11.0759
Мында	-11.076
чылыг	-11.076
Делегейде	-11.0762
▁чадаң	-11.0775
▁үннерни	-11.0777
Албан	-11.0777
▁хайыр	-11.0777
▁ёзулалдар	-11.0779
жилге	-11.078
▁солдат	-11.0782
▁бистер	-11.0789
Фат	-11.0792
дуу	-11.0795
▁дазылы	-11.0796
▁оваа	-11.0797
Кита	-11.0803
|2	-11.0803
▁Сег	-11.0805
баева	-11.0805
▁көвүде	-11.0806
▁Тип	-11.0808
ижээ	-11.0817
автор	-11.082
▁указ	-11.0821
Финляндия	-11.0826
шөлээ	-11.0835
▁кубогун	-11.0836
▁тевер	-11.084
Мари	-11.0842
агроном	-11.0842
гуш	-11.0846
yn	-11.0849
▁чевеглер	-11.0854
ботаник	-11.0854
чап	-11.0856
▁кыргыс	-11.0856
аъттың	-11.0863
▁бала	-11.0864
чарыгдалдар	-11.0871
▁Мед	-11.0878
левес	-11.0879
▁кадында	-11.0881
Бас	-11.0882
▁үндүрүглер	-11.0885
Карел	-11.0888
▁Конон	-11.0893
Сес	-11.0897
тенип	-11.0902
▁Фед	-11.0904
кус	-11.0905
День	-11.0906
саада	-11.0908
▁февральда	-11.0913
онгу	-11.0916
хоолга	-11.0918
▁удуртукчулары	-11.0918
методик	-11.092
офи	-11.0927
эжикти	-11.0927
курлавыр	-11.0928
ушта	-11.093
▁магнит	-11.0932
▁(1996	-11.0933
▁чоргаар	-11.0939
Эрте	-11.0952
Ажыг	-11.0953
втономнуг	-11.0957
Люб	-11.0958
Валентина	-11.0958
▁кадайын	-11.0959
Свет	-11.0963
имни	-11.0964
▁эргим	-11.0964
таңды	-11.0966
МКУ	-11.0968
▁Манчы	-11.0968
боттуг	-11.0969
Ульяна	-11.097
щей	-11.0971
▁фестивал	-11.0971
Медицин	-11.0973
академи	-11.0973
▁офицер	-11.0974
▁кинолары	-11.0974
▁евро	-11.0975
▁карьер	-11.0975
УЧ	-11.0976
сагындыр	-11.0976
▁портр	-11.0977
Екатерина	-11.0977
Афанасьев	-11.0977
▁Волгоград	-11.0977
▁премьер	-11.0977
▁принцип	-11.0977
ó	-11.0977
ˑ	-11.0977
Буйурук	-11.0977
Лауреат	-11.0977
Сувурган	-11.0977
ырыткылыг	-11.0977
▁Atsız	-11.0977
▁Science	-11.0977
▁Мунзук	-11.0977
▁механизм	-11.0977
▁скульптур	-11.0977
▁спектр	-11.0977
▁фразеология	-11.0977
▁ыыткыр	-11.0977
▁чыггаш	-11.0977
Dünya	-11.0977
грипп	-11.0977
Волейбол	-11.0977
▁херечилел	-11.0977
Сактыышкын	-11.0977
хензиг	-11.0977
▁копия	-11.0977
башкарылга	-11.0977
▁бетинде	-11.0977
Булуң	-11.0977
▁туттурган	-11.0977
▁апарып	-11.0977
▁Володин	-11.0977
Болгария	-11.0977
Татаринцев	-11.0978
▁эмнээшкин	-11.0978
▁дамчыткан	-11.0978
тывызык	-11.0978
Тураскаалдары	-11.0978
▁боксёр	-11.0978
▁үрезиннер	-11.0978
▁мужчин	-11.0979
Саанчыла	-11.0979
▁(1969)	-11.098
▁Удаваанда	-11.098
▁халыыр	-11.098
эртемден	-11.098
▁хады	-11.098
▁кадагалаттын	-11.0981
▁уттурган	-11.0981
▁чарыгдаар	-11.0981
▁(1978)	-11.0981
Уула	-11.0982
▁любви	-11.0982
Пенсия	-11.0982
▁айтырыгларны	-11.0982
▁1901	-11.0983
Рязан	-11.0984
▁Саая	-11.0985
экономист	-11.0985
Велики	-11.0985
чыглыр	-11.0986
▁үнелеп	-11.0986
▁олонхо	-11.0986
▁экология	-11.0987
▁олуртур	-11.0987
▁шиитпирлеп	-11.0987
▁Энциклопедическ	-11.0988
▁казак	-11.0988
▁дүнеки	-11.0989
▁бомба	-11.099
суртаал	-11.0991
▁Попов	-11.0991
▁эпос	-11.0992
▁үлетпүрү	-11.0992
Физик	-11.0993
▁сельско	-11.0995
▁эжелей	-11.0995
▁даажы	-11.0999
▁үстүнде	-11.0999
▁институттуң	-11.1001
▁делгеми	-11.1001
▁вектерде	-11.1001
▁КП	-11.1004
▁Москвы	-11.1005
▁айтырыгны	-11.1005
хевин	-11.1005
▁Очур	-11.1005
▁көвүдеп	-11.1007
▁(2009	-11.1008
тпээн	-11.101
турк	-11.101
▁Морозова	-11.1012
үлдү	-11.1014
▁хөме	-11.1016
▁аштап	-11.1017
▁Кратки	-11.1017
▁ужуражып	-11.1018
Оол	-11.1019
olog	-11.1019
Дээр	-11.1027
▁кыды	-11.1028
▁шү	-11.1029
▁ыраажызы	-11.1033
min	-11.1035
▁харлап	-11.1036
▁университединче	-11.1036
Тии	-11.1038
▁туружун	-11.1041
доктааткан	-11.1045
▁камгалаары	-11.1047
Анд	-11.1047
▁Кост	-11.1048
▁Восточно	-11.1048
Олонхо	-11.1049
́на	-11.1049
▁жена	-11.105
горск	-11.105
▁мяч	-11.1054
медерели	-11.1054
▁проблемы	-11.1055
ica	-11.1058
▁(1928	-11.1058
5-1	-11.106
▁отряды	-11.1065
▁чазаар	-11.1069
чугула	-11.107
▁Боду	-11.1073
▁акшазы	-11.1073
▁бижиктиг	-11.1086
▁мүн	-11.1086
маңна	-11.1087
▁Тим	-11.1087
▁айлар	-11.1088
▁кафедр	-11.1097
▁уруунуң	-11.1098
▁тыпсыр	-11.1107
▁дааш	-11.1112
русский	-11.1113
▁шимчээшкинин	-11.1117
Электро	-11.1119
Коми	-11.1124
чээли	-11.1125
Кады	-11.1126
холун	-11.1132
▁Макар	-11.1135
▁эгелекчи	-11.1138
▁көжер	-11.1141
▁них	-11.1148
▁аксын	-11.115
АЯ	-11.1151
can	-11.1153
Азыра	-11.1154
çe	-11.1163
ug	-11.1165
▁районнар	-11.1165
▁дуржулгазын	-11.117
▁херекселдерин	-11.1171
арага	-11.1192
үреп	-11.1195
араб	-11.1195
своей	-11.1198
▁чалбар	-11.1199
алдарын	-11.1202
▁харылзаалары	-11.1206
ышкы	-11.1207
▁альбому	-11.1213
ресс	-11.1216
▁малчыннар	-11.1219
mu	-11.1227
чуп	-11.1228
1879	-11.1235
▁матчтарны	-11.1242
▁связ	-11.1243
капитал	-11.1244
▁буура	-11.1245
золот	-11.1247
▁бузу	-11.1252
▁мне	-11.1253
эптиг	-11.1254
өңгүр	-11.1255
▁печ	-11.1256
110	-11.1259
▁суп	-11.126
evi	-11.1261
▁очул	-11.1262
▁карактары	-11.1265
манов	-11.1273
▁Карп	-11.1273
Архимед	-11.1281
телефон	-11.1281
Татьяна	-11.1282
Шаг	-11.1282
Новосибирск	-11.1283
чиңге	-11.1283
Журнал	-11.1284
▁байлаа	-11.1285
доктаамал	-11.1288
▁978-975-437-	-11.1289
Владивосток	-11.1289
‒	-11.1289
▁Ильинична	-11.1289
▁Правительств	-11.1289
▁консерватория	-11.1289
Избранны	-11.1289
чөгенчиг	-11.1289
▁конститу	-11.1289
▁кухня	-11.1289
▁себя	-11.1289
▁творчеств	-11.1289
▁Вопрос	-11.1289
▁ыяжы	-11.1289
book	-11.1289
▁морфология	-11.1289
▁первая	-11.1289
▁Ельцин	-11.1289
▁сүмелеп	-11.129
шоодай	-11.129
▁алзыр	-11.129
▁дүлей	-11.129
Улаштыр	-11.129
Тоожу	-11.129
type	-11.129
▁сөөлзүредир	-11.129
▁көдүрүп	-11.1291
▁Матвеев	-11.1291
▁деятель	-11.1291
▁негеп	-11.1291
▁тургускаш	-11.1291
Ажыглаары	-11.1291
▁эдержип	-11.1291
▁люди	-11.1291
▁килге	-11.1291
▁дыңналыр	-11.1292
▁война	-11.1292
▁(1965)	-11.1292
▁аңнап	-11.1292
▁(1968)	-11.1292
▁өлүрткен	-11.1292
▁көжү	-11.1293
▁Gün	-11.1294
Дорт	-11.1294
Кюри	-11.1294
версия	-11.1295
▁арттырган	-11.1296
подготовк	-11.1296
▁саанчызы	-11.1297
▁чаражы	-11.1298
▁хүндүлел	-11.1298
▁прошл	-11.1298
▁вечер	-11.1298
ниитилел	-11.1298
Чогаалдары	-11.1299
▁Анкара	-11.13
▁тираж	-11.1301
▁авиа	-11.1301
▁томах	-11.1302
Кончуг	-11.1305
▁номнарын	-11.1306
▁шору	-11.1306
реңгей	-11.1307
чыргал	-11.1307
чоок	-11.1313
▁чайынында	-11.1313
1897	-11.1314
Эзир	-11.1318
▁металлдар	-11.1319
когарал	-11.132
дайынчы	-11.132
кыры	-11.1321
▁директорнуң	-11.1322
▁152	-11.1322
Na	-11.1322
бедик	-11.1324
Серен	-11.1327
чог	-11.1328
▁идея	-11.1328
ашкыны	-11.1329
▁аткаарла	-11.133
▁төөгүнүң	-11.1332
согун	-11.1334
▁сайтызында	-11.1334
дамчыыр	-11.1335
är	-11.1335
▁номунче	-11.1335
▁салбырынче	-11.1336
▁хостаан	-11.1337
▁чиве	-11.1338
чүге	-11.1339
uch	-11.1344
ïm	-11.1347
▁дыңнаан	-11.1356
▁заводун	-11.1357
▁пят	-11.1358
▁төөгүзүнге	-11.137
▁команды	-11.1371
кажан	-11.1372
ier	-11.1373
CO	-11.1373
▁Хакасия	-11.1375
ходит	-11.1376
▁суурну	-11.1378
▁сунар	-11.138
cha	-11.1381
3):	-11.1383
▁ыгла	-11.1383
Дол	-11.1391
▁терминнер	-11.1397
▁Em	-11.14
▁рольдары	-11.1405
▁тутчу	-11.1412
▁электромагнит	-11.1413
образ	-11.1419
лчак	-11.1422
▁чагырыкчы	-11.1427
▁чуртка	-11.143
▁политиказы	-11.1438
▁Тит	-11.1438
базын	-11.1442
▁шугуму	-11.145
▁өскелери	-11.1453
▁1-2	-11.1458
болуушкуннарны	-11.1458
▁идиг	-11.1459
▁Бен	-11.1461
▁лига	-11.1463
▁сумо	-11.1463
▁чир	-11.1467
FC	-11.1469
▁харылзааны	-11.1471
▁оду	-11.148
zh	-11.1482
бөле	-11.1483
▁Күл	-11.1484
▁кадак	-11.1486
▁Каң	-11.1486
алыңар	-11.1487
▁(22	-11.1488
шпай	-11.1493
достижений	-11.1498
▁деткимчези	-11.1498
▁Росс	-11.1503
соора	-11.1505
▁тоолчу	-11.1505
▁калыр	-11.1506
bir	-11.1513
▁(1975)	-11.1514
▁решени	-11.1517
чырыктың	-11.1521
Хуннулар	-11.1532
иезин	-11.1533
▁Американ	-11.1534
чорудулганы	-11.1536
▁Эль	-11.1537
конференция	-11.1539
Почётны	-11.154
▁падеж	-11.1543
үндү	-11.1543
emi	-11.1545
Ыры	-11.1545
үннүг	-11.1546
▁чуртту	-11.1555
1893	-11.156
доос	-11.156
▁больше	-11.1561
хаак	-11.1563
тыӊ	-11.1565
үзел	-11.1567
ителей	-11.1569
mer	-11.1576
▁хореограф	-11.1576
▁депутатта	-11.1577
▁хөйнү	-11.1581
ыычал	-11.1584
▁таварыштырар	-11.1591
Вера	-11.1593
▁Черни	-11.1595
▁Ким	-11.1597
Сибир	-11.1606
▁ыйгылаажы	-11.1609
▁фестивалы	-11.161
▁аспирант	-11.1611
кудумчу	-11.1611
шиитпир	-11.1612
строительно	-11.1612
ˈ	-11.1612
▁концепция	-11.1612
Sciurus	-11.1612
Межегей	-11.1612
илчирбе	-11.1612
▁translation	-11.1612
▁Некрасов	-11.1612
▁белеткенип	-11.1612
▁боттандырып	-11.1612
▁коллегии	-11.1612
▁хоруглуг	-11.1612
▁шимчээр	-11.1612
дүлгүүр	-11.1612
квадрат	-11.1612
▁выступа	-11.1612
▁шыгжап	-11.1612
▁хөгжүдер	-11.1612
камгаладылга	-11.1612
▁Көрея	-11.1612
чолдак	-11.1612
▁Кубани	-11.1612
▁ТывН	-11.1612
шаблон	-11.1612
▁чемгерер	-11.1612
Ажылчын	-11.1612
▁ООН	-11.1612
Yeni	-11.1612
▁Суриков	-11.1612
▁социалистическо	-11.1612
▁коровы	-11.1612
▁ажылдааш	-11.1612
▁статей	-11.1612
▁композиция	-11.1613
сапык	-11.1613
▁чырып	-11.1613
▁хүндүс	-11.1613
▁болдунмас	-11.1613
▁оборон	-11.1613
▁гуманитарны	-11.1613
Тенишев	-11.1613
▁фотограф	-11.1613
▁биография	-11.1613
▁сүмелекчизи	-11.1614
▁психолог	-11.1614
Түлүш	-11.1614
▁регионалдыг	-11.1615
Тергиин	-11.1615
Убсу	-11.1615
Төвүт	-11.1615
▁үнелээн	-11.1615
▁каяа	-11.1615
▁бараалгаткан	-11.1615
▁чыткаш	-11.1615
үргүлчү	-11.1616
▁чалалга	-11.1616
▁операция	-11.1616
▁Роберт	-11.1616
Чиңге	-11.1616
▁одна	-11.1618
▁хеймер	-11.1618
Даваа	-11.1618
Байлак	-11.1618
фашист	-11.1619
Тожу	-11.162
чуду	-11.1621
▁тургустунарынга	-11.1621
дүжүр	-11.1621
▁дөгерезин	-11.1624
Ленинград	-11.1624
▁уже	-11.1625
▁Федор	-11.1625
ушки	-11.1627
▁килдистиң	-11.1629
▁велико	-11.163
▁перешл	-11.1634
▁уттуп	-11.1636
▁среднем	-11.1638
▁годов	-11.1638
Барнаул	-11.1638
▁селе	-11.1644
ляция	-11.1646
ГО	-11.1647
▁күүседири	-11.1648
Чуртту	-11.1648
▁которые	-11.1649
Монгол	-11.1651
Тренер	-11.1652
ажыт	-11.1652
▁всех	-11.1655
▁амыдыралдыг	-11.1655
▁Үр	-11.1659
▁департаментизи	-11.1662
▁ооргазы	-11.1662
▁солаан	-11.1662
II	-11.1665
▁составында	-11.1669
▁Вэй	-11.1673
▁чорулга	-11.1674
пери	-11.1676
van	-11.1679
окту	-11.1684
▁холуур	-11.1686
▁угланыышкын	-11.1687
Жа	-11.1688
▁чонунга	-11.1689
▁даргазынга	-11.1691
Аниме	-11.1692
төлүнге	-11.1694
аңчы	-11.1695
Диплом	-11.1698
▁работе	-11.1711
очки	-11.1711
▁сонуургал	-11.1712
ere	-11.1713
мегелээр	-11.1715
металл	-11.1725
чара	-11.1725
▁чиг	-11.1728
даарта	-11.1729
▁күзелдер	-11.1732
Карьеразы	-11.1734
Инек	-11.1738
Ыт	-11.1744
▁эконом	-11.1748
▁хона	-11.1751
кошка	-11.1759
▁Мира	-11.1759
bel	-11.1761
▁Стамбулду	-11.1763
▁отдых	-11.1768
▁чарлыы	-11.1768
▁куй	-11.177
▁клиника	-11.1779
Le	-11.1787
селеме	-11.1788
▁хостаар	-11.1797
Тро	-11.1797
▁журналдар	-11.1797
▁үндүрүлгези	-11.18
▁төнчүзү	-11.1809
инек	-11.1813
▁баштары	-11.1814
▁хаар	-11.1816
Мон	-11.1817
машинаны	-11.1819
ыяк	-11.1822
Арага	-11.1823
Хаанның	-11.1826
▁аймактарны	-11.1827
▁тудуун	-11.1828
▁аргаларны	-11.183
щение	-11.1834
▁дузалакчы	-11.1836
Дону	-11.1846
Чүү	-11.1854
▁график	-11.1856
2021	-11.1856
талып	-11.1859
ээшкиннер	-11.186
Европей	-11.1872
төрүмелинде	-11.1877
▁чорду	-11.1879
▁обще	-11.1883
Кадык	-11.1889
▁Пен	-11.1892
▁Ульян	-11.1893
▁улгады	-11.1895
центр	-11.19
үзүктел	-11.19
▁тырты	-11.1904
ньюй	-11.1905
▁128	-11.1909
▁ТАРН	-11.1909
Be	-11.1911
төгер	-11.1912
олушкак	-11.1913
Перво	-11.192
▁аъдын	-11.1924
▁Эвилел	-11.1924
буттар	-11.1927
▁артында	-11.1928
тодарадылга	-11.1928
Сибирь	-11.1931
▁романнар	-11.1932
стру	-11.1936
▁чурталгазы	-11.1937
Bar	-11.1937
чурумну	-11.1937
land	-11.1938
үндезил	-11.194
универс	-11.1943
пышаан	-11.1945
шиңгээ	-11.1945
á	-11.1945
č	-11.1945
ВДНХ	-11.1945
Воспоминания	-11.1945
Интервью	-11.1945
Норвегия	-11.1945
азербайджан	-11.1945
нфракызыл	-11.1945
ӧ	-11.1945
ت	-11.1945
▁Yoga	-11.1945
▁Ефрона	-11.1945
▁Отделение	-11.1945
▁лёгко	-11.1945
▁синтаксис	-11.1945
▁ѳѳредилге	-11.1945
Евдокия	-11.1945
Чогаадыкчы	-11.1945
ҥ	-11.1945
▁Sahaja	-11.1945
▁Оожум	-11.1945
▁аспект	-11.1945
ңайнып	-11.1945
Өршээ	-11.1945
Women	-11.1945
ptimal	-11.1945
эффект	-11.1945
▁Рембрандтың	-11.1945
▁феодал	-11.1945
▁Кутлуг	-11.1945
▁комедия	-11.1945
▁херечилеп	-11.1945
▁Бээзи	-11.1945
▁уезинде	-11.1945
Тайбың	-11.1945
албатызы	-11.1945
▁Review	-11.1945
▁шимчедикчи	-11.1945
▁дамчыштыр	-11.1946
▁шөлүглер	-11.1946
Список	-11.1946
▁сүзүгл	-11.1946
Научно	-11.1946
▁ТувГУ	-11.1946
▁занима	-11.1946
Токуз	-11.1946
▁стихи	-11.1946
▁Республике	-11.1946
p̲	-11.1946
▁угландыр	-11.1946
▁обучение	-11.1946
▁жужан	-11.1946
▁версиязы	-11.1947
социал	-11.1947
ыштыр	-11.1947
▁олуртуп	-11.1947
▁чедишпес	-11.1947
▁Франк	-11.1948
▁чевээнге	-11.1948
▁аржыыл	-11.1948
▁программазы	-11.1949
фак	-11.1949
▁кордакчы	-11.1949
▁(1949)	-11.1949
Брахма	-11.1949
▁дуглаар	-11.1949
▁защит	-11.1949
экзамен	-11.195
▁меңги	-11.1951
▁другие	-11.1951
ыыт	-11.1951
▁тудугжу	-11.1951
▁(1943)	-11.1951
▁углуг	-11.1951
найыралдыг	-11.1952
▁Данилов	-11.1952
▁эдерип	-11.1952
▁тарап	-11.1954
▁хүрээзинге	-11.1955
▁кадарып	-11.1956
дайзынны	-11.1956
▁хөгжүлде	-11.1957
▁угла	-11.1958
сонуурга	-11.1959
Лидия	-11.196
▁уездизи	-11.196
Кубок	-11.196
Сталин	-11.1961
баштайгы	-11.1961
деңзи	-11.1962
харылзаа	-11.1963
Ынча	-11.1963
Золотой	-11.1963
▁чыындылары	-11.1964
▁эгезинге	-11.1964
▁соонга	-11.1964
▁изучения	-11.1965
700	-11.1965
эмнелге	-11.1966
▁турзун	-11.1967
күчүлүг	-11.1972
▁хандырылгазы	-11.1972
▁находи	-11.1973
▁сайзыратканы	-11.1973
ңнадыр	-11.1974
▁Евгения	-11.1974
монгол	-11.1974
Байырлал	-11.1975
▁Паралимпийски	-11.1976
Искусство	-11.1977
▁Белоруссия	-11.1977
▁гектардан	-11.1979
▁Фонд	-11.1979
▁МГУ	-11.1981
эдер	-11.1981
▁алгыш	-11.1984
▁чылында	-11.1987
▁чуу	-11.1988
▁вокал	-11.1989
▁аргы	-11.1992
Радио	-11.1992
чоннуң	-11.1993
если	-11.1994
▁этого	-11.1997
▁эколог	-11.1997
техника	-11.2
▁доктаалы	-11.2002
▁гражданско	-11.2003
▁выставк	-11.2004
▁империязының	-11.2006
▁эмиг	-11.2007
Хемчиктиң	-11.2008
▁800	-11.2012
холдарын	-11.2016
▁фамилиязын	-11.2016
гүже	-11.2022
▁чашты	-11.2023
Иви	-11.2024
поезд	-11.2024
▁кудумчулар	-11.2031
▁санаашкын	-11.2032
tro	-11.2032
Никит	-11.2036
опера	-11.2037
автомат	-11.2037
▁улиц	-11.2039
дүгжүр	-11.2042
Хайыра	-11.2042
—13	-11.2047
▁Ленинградка	-11.2047
боттары	-11.205
▁медальдың	-11.2056
четпестер	-11.2057
садыг	-11.2062
дирип	-11.2062
▁Ol	-11.2063
ral	-11.2064
▁төлээлери	-11.2065
▁тудуу	-11.2066
▁шыва	-11.2067
эмин	-11.2068
Түрктер	-11.2072
карааның	-11.2073
харыы	-11.2075
Чайын	-11.2075
шиитпирлиг	-11.2077
Почт	-11.2077
▁нерв	-11.2077
▁перс	-11.208
Генерал	-11.208
халас	-11.2082
сугнуң	-11.2085
тургузу	-11.2089
тельной	-11.209
тул	-11.2091
▁теориязын	-11.2093
чаңын	-11.2099
▁Павлов	-11.2101
▁250	-11.2103
for	-11.2106
келир	-11.2109
чепсек	-11.2113
▁хээ	-11.2116
▁дарган	-11.2121
▁кааннар	-11.2122
булуңчук	-11.2129
▁ёзулалы	-11.2132
▁Дам	-11.2143
каннар	-11.2149
чугаш	-11.2149
телесериал	-11.2151
1876	-11.2153
▁үннү	-11.2155
▁Сост	-11.2158
жыткан	-11.216
определ	-11.2165
оптап	-11.2165
Қа	-11.2167
Кыска	-11.2168
▁кажаа	-11.2169
▁голов	-11.2174
▁дайызыннар	-11.2177
▁чамдыктары	-11.218
▁философияны	-11.218
▁үүлгедиглери	-11.2187
▁Тывы	-11.2189
▁мергежилин	-11.2191
▁кызыгаары	-11.2207
▁дашта	-11.2208
▁парк	-11.2208
организас	-11.2211
▁хамаарылгазы	-11.2214
▁капитан	-11.2218
▁саналдар	-11.2221
▁Знамени	-11.2226
▁төвүнде	-11.2238
висти	-11.2248
▁архитектур	-11.2256
▁сайзыраар	-11.2257
▁Mill	-11.2265
hu	-11.2271
▁оолду	-11.2273
космонавт	-11.2274
ксап	-11.2279
күүседи	-11.228
Любов	-11.2282
дыңнадыр	-11.2282
удуп	-11.2284
▁ирги	-11.2284
▁Чөвүлел	-11.2284
тургузукчу	-11.2286
ургун	-11.2288
▁Ыдык	-11.2288
news	-11.229
Девискээр	-11.229
Заздравных	-11.229
Күдерек	-11.229
дүштеки	-11.229
▁Moser	-11.229
▁original	-11.229
▁with	-11.229
▁Нимажап	-11.229
▁альманах	-11.229
▁фабриказы	-11.229
▁художник	-11.229
▁энциклопедии	-11.229
▁үймээн	-11.229
Горбачёв	-11.229
Грязнов	-11.229
▁ажаакчызы	-11.229
▁династия	-11.229
▁дузаламчы	-11.229
▁теории	-11.229
▁тиилээш	-11.229
▁функция	-11.229
бизнес	-11.229
▁сөңү	-11.229
Golden	-11.229
Чооду	-11.229
▁ректору	-11.229
▁сөглээр	-11.229
oğlu	-11.229
▁школе	-11.229
▁телеканал	-11.229
▁дочь	-11.229
▁академиги	-11.229
▁өөскү	-11.229
▁аарааш	-11.229
▁ночь	-11.229
▁бүрүлүг	-11.229
▁тибет	-11.2291
▁командалар	-11.2291
Киргиз	-11.2291
▁казымал	-11.2291
Комсомольск	-11.2291
▁армия	-11.2291
▁оюлган	-11.2291
▁таныыр	-11.2292
▁выпуск	-11.2292
▁ажылдажылга	-11.2292
▁времена	-11.2292
▁ещё	-11.2292
Ишкин	-11.2292
▁адырлыр	-11.2292
▁билбейн	-11.2292
▁партии	-11.2293
▁каттыжып	-11.2293
Булак	-11.2293
Метод	-11.2293
▁Мугур	-11.2293
▁пятилетки	-11.2293
▁фигур	-11.2294
▁британ	-11.2294
▁куткаш	-11.2294
▁Думазы	-11.2294
▁быжар	-11.2295
▁эрткеш	-11.2295
▁чаалашкан	-11.2295
▁чечээ	-11.2296
▁сѳс	-11.2296
▁ажылчыннары	-11.2296
▁төлеп	-11.2296
▁көрүкчүлер	-11.2297
төлээлекчи	-11.2297
▁1902	-11.2298
▁чугааланып	-11.2299
▁Псков	-11.2299
▁эштир	-11.2299
▁божаан	-11.2299
аӊгы	-11.2301
▁адаттынган	-11.2302
▁дуңмалары	-11.2302
▁өгбелер	-11.2302
▁хөөре	-11.2302
▁Awards	-11.2303
▁даван	-11.2303
▁приём	-11.2303
Сахаджа	-11.2304
▁дыңнааш	-11.2304
▁1899	-11.2305
▁Элчин	-11.2306
мөчү	-11.2307
▁арбай	-11.2308
▁дөгере	-11.231
историческо	-11.231
щенко	-11.2314
негелде	-11.2314
▁задачи	-11.2316
Мөңгүн	-11.2316
экономиктиг	-11.2316
Аржаан	-11.2316
OH	-11.2317
Алексей	-11.2317
▁русски	-11.2317
бүдүн	-11.2318
▁дыңгыл	-11.2318
быжыг	-11.2318
Ындыг	-11.2318
▁теориязы	-11.2319
төрүттүнген	-11.2319
Институт	-11.232
▁статьи	-11.2321
шакты	-11.2322
Биче	-11.2322
Франс	-11.2323
▁Хүннү	-11.2324
300	-11.2325
▁мергежилдиг	-11.2326
▁найыралы	-11.2326
▁эргелери	-11.2333
1896	-11.2335
▁ыяштан	-11.2336
sion	-11.2338
▁доктаар	-11.2339
▁дайзыннар	-11.234
дээш	-11.2345
чигзин	-11.2351
▁иргин	-11.2351
▁системы	-11.2352
Сибирьниң	-11.2354
ализм	-11.2354
▁угланыышкыны	-11.2358
▁режиссёру	-11.2361
түме	-11.2361
онал	-11.2366
▁белоктар	-11.2367
▁саңы	-11.2371
үнезин	-11.2371
▁номчукчулар	-11.2375
Кыргыс	-11.238
▁воспита	-11.2383
▁кыстың	-11.2386
дняя	-11.2386
▁арыннар	-11.2388
▁(1923	-11.2388
Авто	-11.2392
▁Част	-11.2394
▁амылыг	-11.2398
шөлээн	-11.2402
төрээн	-11.2403
Чугаа	-11.2406
▁Чур	-11.2408
Оор	-11.2409
хемниң	-11.2411
▁тувинск	-11.2416
чүнү	-11.2418
▁талаларын	-11.2422
▁кежигүнүнге	-11.2422
буруу	-11.2422
Жер	-11.2424
▁атомнар	-11.2425
▁вольно	-11.2443
Хор	-11.2445
эртенги	-11.2446
▁нояны	-11.2448
▁Дел	-11.245
Чуртталга	-11.2455
херечи	-11.2464
▁уттур	-11.2476
шах	-11.2479
Новый	-11.2487
рация	-11.2489
чаяан	-11.249
lov	-11.2494
▁талалары	-11.25
химик	-11.2503
Чор	-11.2517
▁чагаалар	-11.2517
5-2	-11.252
▁тывары	-11.2524
▁аялгалар	-11.2525
▁төнер	-11.2527
▁Dev	-11.2527
▁хүлээлгези	-11.2528
цкого	-11.2529
Баары	-11.253
▁черлеринде	-11.2532
▁татарлар	-11.2541
о́в	-11.2562
▁матчтар	-11.2562
▁чемпионнар	-11.2572
еволюстуг	-11.2573
▁чурагай	-11.2575
ағы	-11.2582
▁билиглери	-11.2583
штат	-11.2583
▁садыгжылар	-11.2584
двиг	-11.2586
▁оглунга	-11.2587
правка	-11.26
▁хандызы	-11.261
▁Год	-11.2619
Ѳ	-11.262
▁өөреникчилер	-11.2621
▁империязы	-11.2624
дугуржулга	-11.2625
енчиг	-11.2627
бүдүш	-11.2636
четчир	-11.2639
металлург	-11.2641
old	-11.2645
Кадайы	-11.2646
Ü	-11.2646
исслед	-11.2647
wiki	-11.2647
Парламент	-11.2647
ر	-11.2647
í	-11.2647
Бешикташ	-11.2647
Женщина	-11.2647
ن	-11.2647
▁Шыырап	-11.2647
▁ансамбли	-11.2647
▁батальон	-11.2647
▁бижээш	-11.2647
▁доозулган	-11.2647
▁күштелдирер	-11.2647
▁продукция	-11.2647
▁ыйгылааш	-11.2647
Instagram	-11.2647
ø	-11.2647
▁Медведев	-11.2647
▁Чүлдүм	-11.2647
▁аграр	-11.2647
▁чыгыы	-11.2647
▁шыгжаттын	-11.2647
▁Суперкубогу	-11.2647
▁Чижээлээрге	-11.2647
▁диаметр	-11.2647
▁күзээр	-11.2647
коргулчун	-11.2647
▁Козлова	-11.2647
▁двух	-11.2647
▁направлен	-11.2647
▁сценарист	-11.2647
graph	-11.2647
▁өстүрген	-11.2647
▁Винсент	-11.2647
мыйысты	-11.2647
▁узбек	-11.2647
▁хынаар	-11.2647
ЦСП	-11.2647
Колхоз	-11.2647
▁Армения	-11.2648
▁гандбол	-11.2648
▁чогааттынган	-11.2648
▁Эмре	-11.2648
чемиштиг	-11.2648
▁хереглеп	-11.2648
▁хөделир	-11.2648
Информация	-11.2648
▁Корея	-11.2648
▁угланган	-11.2648
чигзиниг	-11.2648
▁шыдавайн	-11.2649
Лучши	-11.2649
оъду	-11.2649
▁бүзүрээр	-11.2649
▁адырлып	-11.265
Известия	-11.265
▁отрасл	-11.265
▁обита	-11.2651
▁чычаан	-11.2651
▁йога	-11.2651
белетке	-11.2652
Литературн	-11.2652
▁Медицина	-11.2653
рганиктиг	-11.2653
Полны	-11.2653
▁шилчиткен	-11.2653
Красная	-11.2654
далаштыг	-11.2654
▁модель	-11.2654
▁өгленген	-11.2654
▁салбас	-11.2655
▁көвүдедир	-11.2656
▁Хамык	-11.2656
▁Vol	-11.2656
сценарий	-11.2657
публика	-11.2657
▁диштер	-11.2657
▁название	-11.2657
▁директорлап	-11.2659
хун	-11.266
▁племен	-11.266
▁Тереза	-11.2661
Тываполиграф	-11.2661
▁узуткап	-11.2662
▁значени	-11.2662
▁коргар	-11.2663
▁съездизи	-11.2663
Comm	-11.2664
Альб	-11.2664
чөпшээрежир	-11.2665
▁политехник	-11.2665
▁геология	-11.2665
▁Ахмет	-11.2665
хожу	-11.2666
▁благо	-11.2666
▁Мартин	-11.267
Математика	-11.267
айтыышкын	-11.2673
▁хамаатылар	-11.2674
▁старши	-11.2674
Благо	-11.2676
▁буддистер	-11.2677
▁дескинер	-11.2679
▁библиотеказы	-11.2679
▁прозачы	-11.268
▁революция	-11.2682
хөлүн	-11.2683
hir	-11.2683
мырыңай	-11.2685
таакпы	-11.2686
Василий	-11.2686
хөөмей	-11.2687
концерт	-11.2687
солагай	-11.2687
кургаг	-11.2688
мөөң	-11.2688
тергиин	-11.2688
Ынчангаш	-11.2688
▁чогаа	-11.2689
хоранныг	-11.2693
▁чурттарының	-11.2694
национал	-11.2696
улустуң	-11.2697
▁хадып	-11.2698
▁келдим	-11.2698
▁Доро	-11.2698
Попков	-11.27
бүлелиг	-11.2702
чылдың	-11.2705
▁шеригжи	-11.2706
Бавария	-11.2708
Поляр	-11.2709
ттирер	-11.2709
▁5-9	-11.271
Татар	-11.271
▁шыдаан	-11.2711
Фон	-11.2711
үлүг	-11.2711
▁For	-11.2713
өршээ	-11.2715
миннир	-11.2718
▁аксынга	-11.2723
▁эргелерин	-11.2723
▁саваң	-11.2723
▁араганы	-11.2733
Улан	-11.2739
hmet	-11.2741
▁тургузуунуң	-11.2746
хмет	-11.2753
▁Art	-11.2755
Дай	-11.2761
▁чевег	-11.2773
Пет	-11.2774
▁дүвүре	-11.2776
утку	-11.2776
бажыңны	-11.2777
▁айтырар	-11.2778
Там	-11.278
▁саха	-11.2784
▁мастерская	-11.2785
▁которы	-11.2786
▁хамаарылгазын	-11.2796
дажыг	-11.2797
ini	-11.2799
▁талант	-11.2812
чуруктар	-11.2814
чоокта	-11.2818
▁Архивн	-11.2821
▁чурттаан	-11.2822
▁хөлдер	-11.2822
Силерниң	-11.2824
▁ырылары	-11.2825
Белорус	-11.2836
Ужу	-11.2838
▁Конституциязы	-11.2839
чаяаны	-11.2849
хөөнү	-11.2851
▁Чес	-11.2852
▁105	-11.2861
▁деңзизи	-11.2863
дески	-11.2868
чалгын	-11.2876
▁5000	-11.2884
▁Türkler	-11.2891
оңгул	-11.2895
▁Hu	-11.29
техническ	-11.2903
рост	-11.2904
Kara	-11.2916
Нобелевск	-11.2922
Очулга	-11.2923
asia	-11.2924
▁кижизидер	-11.2925
150	-11.2936
дужаалга	-11.2938
▁эдеринчи	-11.2963
Ары	-11.2966
▁округу	-11.2971
▁садыы	-11.2976
Мил	-11.2977
▁өскерилге	-11.2978
ураглыг	-11.2979
▁Турцияда	-11.298
▁революциязы	-11.2983
9-0	-11.2984
▁жил	-11.299
аскыр	-11.2991
Парти	-11.2997
▁Маады	-11.3003
пароход	-11.3007
чүък	-11.3014
Людми	-11.3017
хөдел	-11.3017
▁Третьяковск	-11.3018
Journal	-11.3018
Матрёна	-11.3018
Найысылал	-11.3018
монгольских	-11.3018
▁London	-11.3018
▁control	-11.3018
▁Миндиашвили	-11.3018
▁Смоленск	-11.3018
▁председател	-11.3018
▁события	-11.3018
Бүдүрүлге	-11.3018
Пюрбю	-11.3018
▁Cilt	-11.3018
▁Ирландия	-11.3018
▁Новгород	-11.3018
▁топоним	-11.3018
▁тувинцев	-11.3018
▁шылгалдалар	-11.3018
▁Өлеңдер	-11.3018
̄	-11.3018
▁протокол	-11.3018
Мексика	-11.3018
▁Туркестан	-11.3018
▁нептередир	-11.3018
▁туттунар	-11.3018
позиция	-11.3018
аазаашкын	-11.3018
▁мөргүл	-11.3018
▁близ	-11.3018
▁смерти	-11.3018
▁кириллица	-11.3018
▁Зверев	-11.3018
тоомча	-11.3018
▁шѳл	-11.3018
▁хөлеге	-11.3018
▁өттүнүп	-11.3018
▁көжүрген	-11.3018
▁угаап	-11.3018
Эът	-11.3018
▁иммун	-11.3018
ыржым	-11.3018
Сөөк	-11.3019
дендии	-11.302
карандаш	-11.302
▁келбээн	-11.302
▁дескен	-11.302
▁удурланган	-11.302
ооӊ	-11.3021
▁Am	-11.3021
▁(1961)	-11.3021
Педагогика	-11.3022
▁чажырар	-11.3022
▁социолог	-11.3022
▁жаныр	-11.3022
▁горком	-11.3022
▁эттирген	-11.3022
▁порода	-11.3023
▁(1974)	-11.3023
Чүве	-11.3023
▁өлүрген	-11.3023
▁үргүлчүлээн	-11.3023
▁Мэри	-11.3023
▁хылдыг	-11.3024
▁католик	-11.3024
▁блок	-11.3024
▁астрономии	-11.3024
▁Московского	-11.3024
▁подход	-11.3026
▁беглер	-11.3026
▁бүрүде	-11.3026
шүүгүнүң	-11.303
▁информация	-11.3031
▁турунда	-11.3034
▁Анаа	-11.3035
▁кежээки	-11.3036
▁сүмези	-11.3037
▁1892	-11.3037
▁халып	-11.3038
▁аянныг	-11.3038
▁орнукшутканнар	-11.3038
VIII	-11.3042
атомнуг	-11.3042
▁365	-11.3043
▁оралдажыр	-11.3045
▁рун	-11.3046
▁социалдыг	-11.3049
▁тавак	-11.3049
шинчилекчи	-11.3049
▁какпа	-11.305
олевой	-11.3053
▁күзеп	-11.3057
▁төлээде	-11.3058
stan	-11.3059
▁сүзүк	-11.306
адрес	-11.306
Бижээ	-11.306
▁секретарынга	-11.3064
▁общественн	-11.3065
▁хылдар	-11.3065
▁төлевири	-11.3066
▁130	-11.3067
▁Чал	-11.3067
кедергей	-11.307
Дмитрий	-11.3071
өскээр	-11.3071
кайгамчык	-11.3071
Урянхай	-11.3071
▁соңгулдалар	-11.3071
Материал	-11.3072
бижек	-11.3072
▁потом	-11.3073
башкир	-11.3075
▁баксыраан	-11.3077
Сара	-11.3077
радио	-11.3079
▁барымдаалаар	-11.3079
▁180	-11.3082
одор	-11.3084
▁Малов	-11.3087
Ырак	-11.3089
▁чавыза	-11.309
▁тысяч	-11.3092
Салчак	-11.3092
▁On	-11.3095
немец	-11.3096
▁курган	-11.3097
тофа	-11.3102
▁чаңчылы	-11.3102
кошкак	-11.3103
билип	-11.3103
▁социально	-11.3104
а́н	-11.3108
▁Ste	-11.3109
кысказы	-11.3109
▁санынче	-11.3115
ax	-11.3115
▁образован	-11.3118
көөр	-11.3124
Артист	-11.3132
▁кезекке	-11.3135
▁шилчип	-11.3137
5-4	-11.3138
▁башкылаар	-11.3139
ноян	-11.314
физика	-11.3142
леттинмээн	-11.315
▁чашта	-11.3151
▁Орлов	-11.316
▁лидер	-11.316
▁аалчы	-11.317
5%	-11.3171
▁кылганнар	-11.3171
▁малдыг	-11.3173
Кадай	-11.3174
Чүс	-11.318
▁Федерациязында	-11.3181
Социал	-11.3186
ателя	-11.319
хере	-11.3192
▁чадаган	-11.3199
▁медээзи	-11.3206
▁имя	-11.3209
урну	-11.3211
▁орду	-11.3213
▁дөзүн	-11.3214
уккан	-11.3215
узуп	-11.3218
ox	-11.3219
▁боксе	-11.3222
▁кож	-11.3228
▁ойту	-11.3232
ish	-11.3234
▁чагырыкчызы	-11.3235
лыышкын	-11.3241
шпаан	-11.3249
хевири	-11.3251
1-1	-11.326
▁чиге	-11.326
ланган	-11.326
▁160	-11.326
▁чуруктарны	-11.3265
▁Бурганнар	-11.3266
Чалы	-11.3269
▁танкы	-11.327
▁курт	-11.3272
урум	-11.3279
Коз	-11.3284
VII	-11.3289
▁оъттар	-11.3294
ондак	-11.3296
Язык	-11.33
илип	-11.3304
mak	-11.3309
▁туруптар	-11.331
орукка	-11.3312
граждан	-11.3315
кчылар	-11.3317
▁978	-11.3325
чыпшы	-11.3326
▁чагыы	-11.3336
▁сайзыра	-11.3346
▁империязын	-11.3348
▁авазын	-11.3352
▁холдары	-11.3353
▁улустары	-11.3357
магалыг	-11.3357
▁тиилелгени	-11.3357
вүс	-11.3366
хөреңгини	-11.3367
▁вида	-11.3384
иичел	-11.3391
удуртулга	-11.3396
mit	-11.3397
чажыр	-11.3402
Küçü	-11.3402
WWOOF	-11.3402
Дроздов	-11.3402
Дружба	-11.3402
Прокофьев	-11.3402
Профессионал	-11.3402
алдавырлыг	-11.3402
дүвүрээзин	-11.3402
мультфильм	-11.3402
Ѣ	-11.3402
ӥ	-11.3402
།	-11.3402
▁1890—190	-11.3402
▁Дарийги	-11.3402
▁Простоквашино	-11.3402
▁Тбилиси	-11.3402
▁здесь	-11.3402
▁категории	-11.3402
▁кикбокс	-11.3402
▁строительства	-11.3402
▁туманналчак	-11.3402
▁управление	-11.3402
▁ээтпек	-11.3402
ł	-11.3402
š	-11.3402
Крылатское	-11.3402
Лексика	-11.3402
кислород	-11.3402
скрипка	-11.3402
▁Макгрегор	-11.3402
▁белеткенир	-11.3402
▁интернет	-11.3402
▁ال	-11.3402
UTC	-11.3402
▁Шкадов	-11.3402
▁Түңнелинде	-11.3402
▁баштыңнары	-11.3402
▁деткээн	-11.3402
▁лучши	-11.3402
ээлдек	-11.3402
▁куржаг	-11.3402
▁заслуженны	-11.3402
▁Херек	-11.3402
▁Баллак	-11.3402
▁Уфим	-11.3402
▁каттыжылгазы	-11.3402
▁өскерткен	-11.3402
оригинал	-11.3402
үүргене	-11.3402
билинмес	-11.3402
▁чөкпек	-11.3402
Чайковский	-11.3402
▁чүдүкчү	-11.3403
narod	-11.3403
▁чогаадышк	-11.3403
Севиль	-11.3403
▁официальном	-11.3403
▁алюминий	-11.3403
▁Кирилл	-11.3403
▁МВД	-11.3403
Время	-11.3403
лекчизи	-11.3403
Хавак	-11.3403
саарзык	-11.3403
▁планшет	-11.3403
Ногаан	-11.3404
▁алдаржаан	-11.3404
▁Мажит	-11.3404
▁чыттырып	-11.3404
▁очулдуртунган	-11.3404
звание	-11.3404
▁Ворон	-11.3404
▁Греция	-11.3404
▁сүрүп	-11.3404
t̲	-11.3404
▁(1932)	-11.3404
▁чаңчыг	-11.3404
Чоок	-11.3404
Правда	-11.3404
Салават	-11.3404
үңгүр	-11.3404
▁бүдүрген	-11.3404
▁гражданин	-11.3405
▁немеп	-11.3405
буруудадыр	-11.3405
▁Ньютон	-11.3405
▁кескен	-11.3405
▁(2019)	-11.3406
▁наклонение	-11.3406
▁других	-11.3406
▁(1957)	-11.3407
▁Астафьев	-11.3408
▁халдаан	-11.3408
Союз	-11.3408
▁даарап	-11.3408
кайнаар	-11.3409
▁быть	-11.3409
шапкын	-11.3409
Шажынчы	-11.341
сургаал	-11.341
енным	-11.341
▁чуртталгазында	-11.341
▁(1955)	-11.3411
дүптен	-11.3412
▁хандырып	-11.3412
▁өөренири	-11.3412
▁земли	-11.3412
▁агент	-11.3413
▁шынарлар	-11.3414
▁швед	-11.3415
▁Глава	-11.3417
▁коммун	-11.3419
▁өргээзи	-11.3419
▁Так	-11.3419
сээк	-11.3421
▁амыдыралды	-11.3422
▁кулун	-11.3423
▁бүрүтке	-11.3425
дүвү	-11.3428
▁таварыш	-11.3428
Самойлович	-11.3429
▁женщинах	-11.343
Ben	-11.3431
Ru	-11.3432
Информ	-11.3433
▁сидик	-11.3434
▁шүлүглелдер	-11.3436
▁круг	-11.3438
▁системазында	-11.3439
полковник	-11.344
Очерки	-11.3443
▁диалектизи	-11.3443
▁ылга	-11.3445
летие	-11.3445
Дүжү	-11.3449
▁Орду	-11.3449
▁карточк	-11.3449
Har	-11.3451
sport	-11.3453
▁Грин	-11.3453
Супер	-11.3461
▁мөөрейге	-11.3461
класс	-11.3467
частырыг	-11.347
электро	-11.347
Магнитогорскунуң	-11.3471
үлетпүр	-11.3471
Иргит	-11.3472
маргылдаа	-11.3472
шаңнал	-11.3472
Ирина	-11.3472
хөмүр	-11.3472
американ	-11.3472
февраль	-11.3473
ортумак	-11.3473
▁чоокшулап	-11.3474
шоу	-11.3474
электри	-11.3474
хамаан	-11.3474
▁кезектиг	-11.3475
▁ивилер	-11.3476
канчап	-11.3476
калбак	-11.3476
кежикти	-11.3479
ther	-11.3479
борбак	-11.3479
▁кубогунга	-11.3481
корткаш	-11.3482
▁чигири	-11.3482
НЦ	-11.3485
▁сумулар	-11.3486
▁Шри	-11.349
Төөгүлер	-11.3491
▁композиторлар	-11.3496
твор	-11.3497
удазын	-11.3499
үркологтар	-11.3499
▁Bak	-11.3506
▁балдыр	-11.3506
Запад	-11.3508
Инна	-11.3508
Шөл	-11.3508
Араб	-11.3516
▁төөгүчүлер	-11.3518
▁Bil	-11.352
▁одуругда	-11.3527
▁дипти	-11.3528
санскр	-11.3533
▁чугаазындан	-11.3535
▁харам	-11.3538
уйгур	-11.3538
Шань	-11.354
мергежил	-11.3542
номну	-11.3548
уттундур	-11.355
рттырып	-11.3553
▁след	-11.3569
▁дүрүмнер	-11.3571
▁хевиринде	-11.3572
хандыр	-11.3576
своего	-11.3576
met	-11.358
▁Чик	-11.3585
▁того	-11.3596
▁Васильев	-11.3599
▁бүрүлери	-11.3599
▁диск	-11.3601
▁эвилелин	-11.3605
VI	-11.3607
угба	-11.3611
штейн	-11.3622
▁аңгылаар	-11.3622
863	-11.3626
▁бадыткаар	-11.363
Геш	-11.363
▁ханалар	-11.3641
iye	-11.3648
шинчи	-11.3657
Класс	-11.3658
▁деңнелинде	-11.368
ывысты	-11.3682
ирования	-11.3686
кпак	-11.3689
▁номчууру	-11.37
санал	-11.37
хавыяа	-11.3701
Fi	-11.3703
1909	-11.3707
4-1	-11.3709
▁дээрбек	-11.371
Маңаа	-11.3727
▁конце	-11.3728
▁бодара	-11.373
▁башкарыкчы	-11.3731
укчузу	-11.3743
▁областно	-11.3748
пром	-11.3756
Кратк	-11.3761
Работ	-11.3768
▁ядро	-11.3772
▁Лес	-11.3775
uc	-11.3778
төлге	-11.3788
сигенни	-11.3791
1-0	-11.3791
ağı	-11.3795
▁адазын	-11.3795
▁дело	-11.3796
web	-11.3802
лауреат	-11.3802
Osmanlı	-11.3802
ο	-11.3802
Профессор	-11.3802
Фольклор	-11.3802
Ювентус	-11.3802
тууйбу	-11.3802
▁анимация	-11.3802
▁бѳлүк	-11.3802
▁кыштаг	-11.3802
▁кѳргүскен	-11.3802
▁профессия	-11.3802
▁революсчу	-11.3802
▁сегодня	-11.3802
▁тудуушкуну	-11.3802
▁увеличени	-11.3802
▁фортепиано	-11.3802
▁хѳѳрүнде	-11.3802
▁чөдүл	-11.3802
▁ыъттар	-11.3802
пулемёт	-11.3802
трамвай	-11.3802
▁Бичелдей	-11.3802
▁Хамааты	-11.3802
▁Эрдинч	-11.3802
▁кризис	-11.3802
▁минниишкин	-11.3802
▁потенциал	-11.3802
Deneme	-11.3802
билдириишкин	-11.3802
▁организастаан	-11.3802
▁Селена	-11.3802
енисей	-11.3802
Чүдүлге	-11.3802
чөвү	-11.3802
Письма	-11.3802
Хүртү	-11.3802
▁мыйызы	-11.3802
Вегас	-11.3802
Хүрең	-11.3802
▁историк	-11.3802
▁Нарком	-11.3802
Земля	-11.3802
▁месяц	-11.3803
▁ишкир	-11.3803
üzik	-11.3803
▁куруне	-11.3803
ların	-11.3803
▁первых	-11.3803
liği	-11.3803
▁төрелгетен	-11.3803
▁оожургадыр	-11.3803
▁тыттыры	-11.3803
▁ажыглаттынар	-11.3803
▁современность	-11.3803
▁уткуп	-11.3803
▁скиф	-11.3804
▁Белгород	-11.3804
▁православ	-11.3804
▁сеткүүлдер	-11.3804
▁эдилээн	-11.3804
Петербургта	-11.3805
рассказ	-11.3805
▁еді	-11.3805
▁көрүндүр	-11.3805
потреб	-11.3805
▁принят	-11.3806
▁элбек	-11.3806
▁регби	-11.3806
русск	-11.3806
▁уткуур	-11.3806
▁чалбарып	-11.3807
▁холушкак	-11.3808
▁Есенин	-11.3808
▁холааш	-11.3808
▁Константинович	-11.3809
▁номчаан	-11.3809
▁дузалал	-11.381
▁табл	-11.3811
щук	-11.3812
▁чечектерлиг	-11.3812
▁членом	-11.3813
көргүзүг	-11.3814
Сказк	-11.3814
▁чорупкаш	-11.3814
▁үтте	-11.3816
▁характеристик	-11.3816
▁көрбес	-11.3819
▁музейинде	-11.382
▁Латин	-11.382
уйгу	-11.3822
ational	-11.3822
▁быстро	-11.3823
болчукчу	-11.3823
▁чуруттун	-11.3823
▁чуртаар	-11.3824
Георг	-11.3825
▁чүдүлгелиг	-11.3825
выткан	-11.3826
елдирер	-11.3828
▁суглуг	-11.3828
▁раздел	-11.3829
▁ырыларын	-11.3829
▁фаза	-11.3832
сымаар	-11.3833
▁калий	-11.3834
▁XXII	-11.3835
▁Героини	-11.3836
▁семье	-11.3837
дискек	-11.384
▁четтирген	-11.384
Чылгы	-11.3843
▁дузалап	-11.3848
▁деңзиге	-11.3854
AS	-11.3855
байырлыг	-11.3856
Баар	-11.3856
▁аймаандан	-11.3858
Электронн	-11.3858
▁ааржы	-11.3861
yaz	-11.3862
▁популяр	-11.3864
▁чевээ	-11.3864
—2007	-11.3874
▁шиви	-11.3877
▁дуган	-11.3881
Давид	-11.3884
▁варианты	-11.3885
▁шимчээшкининиң	-11.3886
чайгаар	-11.3887
Байкал	-11.3888
Үези	-11.3888
таварылга	-11.3889
долгандыр	-11.3889
out	-11.3889
округ	-11.389
хүлээп	-11.389
▁чорудупкан	-11.389
тургузар	-11.3891
сөзү	-11.3891
▁машиналар	-11.3892
тураскаал	-11.3892
▁чуртунуң	-11.3893
дараазында	-11.3894
философ	-11.3895
XIV	-11.3895
даштан	-11.3897
чоорган	-11.3897
1903	-11.3905
▁садыгжы	-11.3906
▁Нобелевско	-11.3907
▁работник	-11.3907
аалдап	-11.3908
жыгаш	-11.3909
доора	-11.391
▁кызыдар	-11.3911
act	-11.3912
▁рекордны	-11.3913
▁техническо	-11.3913
Барык	-11.3916
▁звезд	-11.3918
▁специалистер	-11.3922
▁хунну	-11.3923
▁звенозу	-11.3924
хүннүң	-11.3942
▁кинофестивал	-11.3943
▁стали	-11.3944
Чартык	-11.3944
доңга	-11.3946
▁улу	-11.3961
▁саналда	-11.3962
Эжен	-11.3964
▁немецтер	-11.3965
Тус	-11.3972
▁Kal	-11.3973
▁футболист	-11.3977
Ковале	-11.3988
амыр	-11.3988
mar	-11.3989
mir	-11.3994
▁улгаттырар	-11.3994
ыдык	-11.3995
резин	-11.4004
1868	-11.4011
.04.19	-11.4014
▁программалар	-11.4017
▁регионнар	-11.402
Дөзүглел	-11.4024
▁редакциязы	-11.4026
▁сады	-11.4027
▁бажыңында	-11.4033
Перед	-11.4038
▁кап	-11.4042
▁куз	-11.4046
удавас	-11.4054
▁сүлде	-11.4056
чугаажок	-11.4059
Карьера	-11.4062
ынчаар	-11.4064
▁Бре	-11.4064
▁физиказы	-11.4067
жыдар	-11.4067
ning	-11.4074
▁бөлүктери	-11.4076
Бег	-11.4076
▁ойнакчылар	-11.4076
хайыра	-11.4084
вание	-11.4085
Херел	-11.4085
▁Васили	-11.4086
сагышты	-11.4094
1859	-11.4104
ведение	-11.4106
соот	-11.4112
▁известн	-11.4113
джу	-11.4113
Чаңчыл	-11.4133
Хур	-11.4136
▁Дорж	-11.4141
▁мурну	-11.4147
tel	-11.4147
▁облазында	-11.4152
▁быжыр	-11.4153
утказы	-11.4154
Луис	-11.4155
1-8	-11.416
185	-11.4161
ционно	-11.4164
▁аялгазы	-11.4169
рюк	-11.417
польск	-11.4171
салаа	-11.4182
lim	-11.4185
найысылал	-11.4186
▁көстү	-11.4188
саан	-11.419
▁удурланыкчылары	-11.4196
127	-11.4204
▁өңнүк	-11.4206
▁даалгазы	-11.4208
▁XXV	-11.421
чөрүлдээ	-11.4213
Воз	-11.4215
болбаазыра	-11.4218
Тургузуу	-11.4219
#	-11.4219
د	-11.4219
ˉ	-11.4219
ВКонтакте	-11.4219
Результат	-11.4219
Удмурт	-11.4219
майыктааш	-11.4219
ِ	-11.4219
▁Database	-11.4219
▁Вашингтон	-11.4219
▁Ринпоче	-11.4219
▁Торопов	-11.4219
▁Чижелээрге	-11.4219
▁Шривастава	-11.4219
▁Ылаңгыя	-11.4219
▁гастрольда	-11.4219
▁дисциплин	-11.4219
▁древние	-11.4219
▁кезекчигештер	-11.4219
▁редколлегия	-11.4219
▁специально	-11.4219
Меркурий	-11.4219
көрүнчүк	-11.4219
▁репертуар	-11.4219
Амстердам	-11.4219
хааглыг	-11.4219
чиигелде	-11.4219
▁Викиданны	-11.4219
дадывыр	-11.4219
▁зачёт	-11.4219
▁Çınar	-11.4219
▁Аракчаа	-11.4219
▁уургай	-11.4219
▁вместе	-11.4219
▁представлен	-11.4219
▁фронтучу	-11.4219
шуурган	-11.4219
нструкция	-11.4219
Хорлуу	-11.4219
скобка	-11.4219
▁около	-11.4219
▁хондур	-11.4219
▁Кемерово	-11.4219
Дүрген	-11.4219
▁самоди	-11.4219
▁Вольф	-11.422
▁човап	-11.422
Фильм	-11.422
Ынак	-11.422
▁кескеш	-11.422
Избира	-11.422
▁геометр	-11.422
-2101	-11.422
бачыт	-11.4221
▁Бумын	-11.4221
▁өреге	-11.4221
▁Израил	-11.4221
▁Китап	-11.4221
▁төлээлекчилери	-11.4222
▁чанчын	-11.4222
Четки	-11.4222
▁дижик	-11.4223
▁хараада	-11.4223
▁ханызындан	-11.4223
▁кирбес	-11.4224
Фролов	-11.4225
▁курзун	-11.4225
чедимче	-11.4225
▁келбес	-11.4226
▁футболчузу	-11.4227
▁алзып	-11.4227
Олимп	-11.4228
▁Аяна	-11.4229
▁күүседикчизи	-11.4229
тѳл	-11.4229
▁средств	-11.423
Келир	-11.4231
▁Ширин	-11.4232
▁аңгыланып	-11.4232
каргыраа	-11.4233
шырайы	-11.4233
▁Диас	-11.4234
▁эттеп	-11.4234
Бора	-11.4236
Страниц	-11.4236
▁Өөредиин	-11.4236
▁начальник	-11.4237
ымыраа	-11.4237
шкын	-11.4238
▁танк	-11.4239
▁трест	-11.4244
дыңзыг	-11.4245
хавак	-11.4246
▁конференциялар	-11.4248
▁муңгаш	-11.425
чугаалажыышкын	-11.4253
Үндүр	-11.4254
▁кыйгызы	-11.4256
▁Lo	-11.426
мурнуку	-11.426
▁Изв	-11.426
▁чалара	-11.4262
▁Курган	-11.4262
▁Son	-11.4263
ланыышкын	-11.427
Интер	-11.4271
үктү	-11.4274
буруулуг	-11.4277
▁золото	-11.4278
Ульяновск	-11.4278
▁үстүр	-11.4278
хайым	-11.4279
▁Sch	-11.4281
телеграф	-11.4282
кышкы	-11.4283
Никола	-11.4288
▁сведени	-11.4293
▁Акад	-11.4295
даштындан	-11.4313
хендирни	-11.4314
azı	-11.4318
документ	-11.4319
ji	-11.432
самолёт	-11.4321
Щ	-11.4321
шыдыраа	-11.4323
Ростов	-11.4323
3-0	-11.4323
Өвүр	-11.4323
декабрь	-11.4324
▁кажыктар	-11.4324
октябрь	-11.4325
онзагай	-11.4325
ёзулуг	-11.4325
чедиишкин	-11.4326
сөстүң	-11.4326
▁улгадыр	-11.4327
июнь	-11.4328
▁чепсектери	-11.433
Улустуң	-11.4333
хайгаараар	-11.4334
▁Львов	-11.4337
хемчээл	-11.4338
Нью	-11.434
ынчангаш	-11.434
▁чорупканнар	-11.4341
▁янзылары	-11.4348
материал	-11.4354
▁формировани	-11.4354
▁деви	-11.4356
сугну	-11.4358
▁күштерин	-11.4359
Fran	-11.436
дүрзү	-11.436
эрес	-11.4361
хурал	-11.4362
цвет	-11.4362
▁сумел	-11.4366
баштак	-11.4366
▁производственны	-11.4368
▁хонукта	-11.437
дустуг	-11.4372
зыраар	-11.4376
Остро	-11.4376
Биология	-11.4377
талдыр	-11.4383
▁кышты	-11.4383
боодал	-11.4386
▁ажылдакчылар	-11.4388
елбээ	-11.439
▁үүлези	-11.4405
▁тав	-11.4407
барып	-11.4408
Национал	-11.4412
Добро	-11.4413
азыраан	-11.4422
▁Малчын	-11.4425
пьесы	-11.4429
ater	-11.4435
▁демдегле	-11.4437
улуу	-11.444
▁кадарар	-11.4451
льник	-11.4452
зырап	-11.4462
эфирлиг	-11.4464
ыраажы	-11.4468
Элегест	-11.4475
▁Белорусс	-11.4483
▁картин	-11.4485
домактың	-11.4485
Республик	-11.4487
ттундурбас	-11.4489
▁дебют	-11.4493
аарышкы	-11.4503
▁Был	-11.4503
bur	-11.4515
▁билиин	-11.453
▁пөш	-11.4536
▁программазын	-11.4545
▁объектилери	-11.455
оставлен	-11.4553
cent	-11.4558
▁дөрткү	-11.456
академиктиг	-11.4568
▁репрессиялар	-11.4569
▁Влад	-11.4577
Уйгу	-11.4578
▁эмнээри	-11.4579
белен	-11.4584
оспа	-11.4587
▁амылыглар	-11.4588
Фото	-11.4592
▁кыйгыры	-11.4604
▁чогаадыкчызы	-11.4604
▁тайгалар	-11.4605
▁салыптар	-11.4612
▁Михайлов	-11.4614
▁экспедициялар	-11.4616
Tarih	-11.4621
▁солдаттар	-11.4622
тузунда	-11.4624
▁режиссер	-11.4626
▁Ni	-11.4631
Билиг	-11.4632
4-0	-11.4635
ix	-11.4638
ижер	-11.4642
▁орбит	-11.4643
хыналда	-11.4645
ээлчег	-11.4648
ོ	-11.4654
Түңнел	-11.4654
чалгаара	-11.4654
̃	-11.4654
س	-11.4654
І	-11.4654
Альметьевск	-11.4654
Билдингир	-11.4654
Исследовани	-11.4654
Кайзерслаутерн	-11.4654
Отличник	-11.4654
Серебрян	-11.4654
Сравнительн	-11.4654
Шѳлүг	-11.4654
▁Архангельск	-11.4654
▁Мургутеевич	-11.4654
▁Шакьямуни	-11.4654
▁аппарган	-11.4654
▁базырыктар	-11.4654
▁болзувусса	-11.4654
▁гипотез	-11.4654
▁дифтерии	-11.4654
▁инспектор	-11.4654
▁лучше	-11.4654
▁мѳңгүн	-11.4654
▁организаций	-11.4654
▁путешестви	-11.4654
▁эккээр	-11.4654
суйбап	-11.4654
хоккею	-11.4654
▁джунгарлар	-11.4654
▁динлиннер	-11.4654
▁мөөгүлер	-11.4654
▁сундулуг	-11.4654
Айтыглар	-11.4654
Кызыгаар	-11.4654
Маргарита	-11.4654
Энергия	-11.4654
▁талалакчылары	-11.4654
▁Всемирн	-11.4654
▁Рашид	-11.4654
▁каттыштырып	-11.4654
▁күүсетти	-11.4654
Кузьм	-11.4654
чырыдыышкын	-11.4654
▁Ташкент	-11.4654
▁эпидемиологии	-11.4654
Летопис	-11.4654
Шевченко	-11.4654
▁Осипов	-11.4654
капуста	-11.4654
▁Матисс	-11.4654
организакчы	-11.4654
▁миннип	-11.4654
▁созыва	-11.4654
шииткелди	-11.4654
вишаан	-11.4654
▁амбын	-11.4654
▁свою	-11.4654
Turk	-11.4654
Сарлык	-11.4654
озалааш	-11.4654
Наталия	-11.4655
▁көргүзүү	-11.4655
▁дөргүл	-11.4655
▁чыгдынган	-11.4655
▁илереттинген	-11.4655
▁вирус	-11.4655
▁даяан	-11.4655
▁бербейн	-11.4655
▁Намдараа	-11.4655
▁кирбейн	-11.4656
▁төлээлекчизи	-11.4656
Академик	-11.4656
▁Берт	-11.4656
▁перераб	-11.4657
▁чаштынып	-11.4657
▁ойрат	-11.4657
дүъш	-11.4657
▁чаңчылчаан	-11.4657
дерзии	-11.4657
▁калчан	-11.4657
▁(1954)	-11.4658
Этнограф	-11.4658
Бөлүк	-11.4658
▁(1958)	-11.4658
▁Мухина	-11.4658
▁орденнери	-11.4659
Чүрек	-11.4659
наркотик	-11.4659
илиттинген	-11.4659
▁тюркология	-11.466
Шелк	-11.4661
▁философтуг	-11.4661
▁эриинге	-11.4661
▁үнмес	-11.4661
▁Борисовна	-11.4662
▁сөөл	-11.4662
▁хоруп	-11.4662
▁бөргү	-11.4663
▁Ex	-11.4663
▁массазы	-11.4664
▁Начын	-11.4664
▁духов	-11.4664
▁тыпкаш	-11.4665
шынзыдар	-11.4665
▁терек	-11.4667
▁дүрбү	-11.4669
▁кажыы	-11.4669
▁кымыл	-11.467
▁бюрозу	-11.4671
хемени	-11.4672
▁үлеп	-11.4672
▁ээрер	-11.4672
▁арынныг	-11.4672
▁Тянь	-11.4673
▁герои	-11.4673
▁идей	-11.4674
▁тодарадылгазы	-11.4676
▁Нико	-11.4677
▁маска	-11.4677
▁Долг	-11.4678
▁тарадып	-11.4682
▁начина	-11.4683
▁методика	-11.4685
▁чайлап	-11.4692
▁дуганнар	-11.4694
көзер	-11.4697
ick	-11.4701
▁бодалдыг	-11.4701
▁Роза	-11.4703
▁чарышка	-11.4708
▁кожумактары	-11.4711
Өдек	-11.4712
кудурук	-11.4712
▁айларда	-11.4717
▁инектер	-11.4717
▁негеттин	-11.4718
Алтайск	-11.4722
▁шиизи	-11.4723
хаакчы	-11.4731
Оскар	-11.4731
информационн	-11.4733
чепсекти	-11.4741
▁открыл	-11.4742
Легенд	-11.4749
▁парт	-11.475
▁чыскаалы	-11.4755
1867	-11.4755
▁байлар	-11.4756
▁курузун	-11.4759
алтай	-11.476
произв	-11.4762
▁десят	-11.4765
архив	-11.4775
чурттакчы	-11.4775
оожум	-11.4777
Наадым	-11.4777
cul	-11.4777
бөдүүн	-11.4778
Президиум	-11.4779
делгем	-11.4779
Казань	-11.4779
мурнуу	-11.4779
Далай	-11.4779
мөзү	-11.478
журнал	-11.4782
Дамба	-11.4782
Бурунгу	-11.4783
Олимпий	-11.4784
▁задани	-11.4791
Борис	-11.4792
▁хунан	-11.4793
▁Люби	-11.4796
эрткен	-11.4797
тюр	-11.4801
▁тырттырар	-11.4802
Судур	-11.4802
дугаар	-11.4806
▁бүрүлерин	-11.4807
бүрүнү	-11.4807
▁чаашкын	-11.4808
кырган	-11.4809
▁шаңнаар	-11.4809
ядыы	-11.481
Алаш	-11.481
▁балды	-11.481
Саннар	-11.4824
▁ынаа	-11.4826
физик	-11.4828
▁философтар	-11.4829
▁төөгүчү	-11.4831
▁дивизия	-11.4838
ированн	-11.4841
чурту	-11.4845
шарыыр	-11.4847
өөредиглиг	-11.485
▁агро	-11.4854
екции	-11.4855
dır	-11.4858
▁Марков	-11.4866
▁доштар	-11.4871
▁сезонун	-11.4875
▁чагыртпа	-11.4881
дөз	-11.4883
боль	-11.4887
info	-11.4891
▁тургустун	-11.4891
▁санатыны	-11.4891
хөрээ	-11.4894
Чуртталгазы	-11.4894
▁Эрес	-11.4897
чемин	-11.4898
▁крае	-11.4908
истиктиг	-11.4912
▁негелдези	-11.4913
өгбелери	-11.4919
айлаң	-11.492
▁оорлаар	-11.4926
▁даргалары	-11.4926
Лев	-11.4931
over	-11.4943
▁хөлү	-11.4943
▁чыга	-11.495
▁5-7	-11.4952
орукта	-11.4956
▁алышкы	-11.4957
▁сылдысты	-11.497
▁дүжүмет	-11.497
даваанда	-11.4972
lect	-11.4975
▁дамчы	-11.4988
даглар	-11.4999
Батор	-11.5002
Төрел	-11.501
▁ним	-11.5017
▁140	-11.5024
▁XXVI	-11.5025
▁адырар	-11.5026
шек	-11.5027
▁бадытка	-11.5036
элээн	-11.5043
Код	-11.5047
▁таваржы	-11.5054
базыр	-11.5061
Очерк	-11.5063
▁киж	-11.5064
хемелер	-11.5078
Уттуру	-11.5081
▁кылды	-11.5081
Тувинский	-11.5086
XII	-11.5089
Энциклопеди	-11.5091
▁характер	-11.5092
▁сургуулу	-11.5092
(?)	-11.5097
▁ужудукчулар	-11.5101
Дмитриев	-11.5106
▁Ефимов	-11.5106
▁бакалавр	-11.5108
▁писатель	-11.5108
▁шаӊнал	-11.5108
Büyük	-11.5108
WWF	-11.5108
λ	-11.5108
Атлетико	-11.5108
Чогаадылга	-11.5108
типендия	-11.5108
▁Disney	-11.5108
▁Yılı	-11.5108
▁Итигэлов	-11.5108
▁Корбюзье	-11.5108
▁Теплоухов	-11.5108
▁дивизион	-11.5108
▁көрдүнген	-11.5108
▁миллиард	-11.5108
▁соавторстве	-11.5108
▁таарышкан	-11.5108
▁уланчыла	-11.5108
▁хайгыыл	-11.5108
▁шуулганы	-11.5108
▁трофей	-11.5108
▁шимченгир	-11.5108
шөйлү	-11.5108
▁Флоренция	-11.5108
▁аэропорт	-11.5108
▁обкомнуң	-11.5108
▁сеткүүлдүң	-11.5108
▁тургулаан	-11.5108
▁чеспек	-11.5108
способ	-11.5108
томаанныг	-11.5108
▁разряд	-11.5108
▁көвүдээн	-11.5108
▁шывыг	-11.5108
▁Никитич	-11.5108
Теория	-11.5108
бушаан	-11.5108
шулбус	-11.5108
▁Штаттары	-11.5108
▁природы	-11.5108
▁физиология	-11.5108
▁стандарт	-11.5108
▁Платон	-11.5108
Маңнай	-11.5108
▁омааш	-11.5108
▁даянган	-11.5108
Шамбалыг	-11.5108
▁бодалды	-11.5108
▁дүжүлгезин	-11.5108
Портрет	-11.5108
Өөрени	-11.5109
крыша	-11.5109
▁Самсонов	-11.5109
▁Дарыма	-11.5109
чаянныг	-11.5109
▁Салбыры	-11.5109
думчуу	-11.5109
▁кылдыны	-11.5109
Амфора	-11.5109
▁начале	-11.5109
▁книги	-11.5109
▁солчуп	-11.5109
▁Лобса	-11.5109
▁делгере	-11.5109
Инд	-11.511
▁экран	-11.511
▁учёны	-11.511
▁фронтуга	-11.511
[1]	-11.511
▁изменени	-11.511
▁физическо	-11.511
▁дуржулгалыг	-11.511
фашистиг	-11.511
▁Чемпионнар	-11.511
▁(1931)	-11.511
▁первый	-11.511
▁шыдапкан	-11.511
▁двор	-11.511
бадылаашкын	-11.511
▁Китай	-11.5111
▁хайнак	-11.5111
▁ызыгуурлуг	-11.5111
▁продуктулар	-11.5111
▁күзелдиг	-11.5111
▁Танчай	-11.5111
шевергин	-11.5111
▁Семен	-11.5111
▁Звезда	-11.5111
▁федерациязы	-11.5112
▁эштип	-11.5112
▁ойталаан	-11.5112
▁Волконск	-11.5112
1,5	-11.5112
▁союз	-11.5113
▁чурумалдыг	-11.5113
▁лично	-11.5113
▁курорт	-11.5113
▁счита	-11.5113
▁хавырар	-11.5113
▁бузар	-11.5114
▁генетик	-11.5114
аныяа	-11.5115
▁болбайн	-11.5115
▁(1959)	-11.5115
▁хонуу	-11.5115
▁ызыгууртан	-11.5117
▁книга	-11.5117
ыыттава	-11.5118
▁үнүжү	-11.5119
▁шаапкан	-11.5119
▁килдизинге	-11.5119
▁соктаар	-11.512
▁всё	-11.512
▁сайзыраан	-11.5121
можно	-11.5122
▁Хө	-11.5123
Сөстү	-11.5124
амедов	-11.5124
▁сумузунда	-11.5125
Един	-11.5125
Кинолары	-11.5128
▁1883	-11.5129
▁ыдып	-11.5129
частыышкын	-11.5132
Хүлер	-11.5133
▁Черби	-11.5133
▁кыдыынга	-11.5134
▁супер	-11.5134
салгап	-11.5135
▁Джей	-11.5135
▁крем	-11.514
Нелли	-11.5149
▁1880	-11.5149
▁происхождени	-11.5149
▁баксырадыр	-11.515
▁үелеринде	-11.515
▁хүннеринде	-11.5153
▁улай	-11.5153
▁Маша	-11.5159
кылажы	-11.5159
учёт	-11.5159
▁оруктары	-11.5165
▁хири	-11.5166
▁эӊ	-11.5166
▁меж	-11.5167
информ	-11.5167
Форм	-11.5168
Арбан	-11.5177
▁демисежи	-11.5177
Транс	-11.5178
▁посвященны	-11.518
Калчаа	-11.5184
▁чарыл	-11.519
▁Андр	-11.5192
▁кошкаа	-11.5193
кочула	-11.5193
болдунар	-11.5194
Садыг	-11.5194
▁шиидер	-11.5196
▁өлүрү	-11.5199
▁жыл	-11.5201
прельдиң	-11.5207
будукту	-11.5213
Шат	-11.5214
Дяд	-11.5216
▁очерктер	-11.5218
Памятник	-11.5227
▁казахтар	-11.5231
Пример	-11.5235
.08.19	-11.5235
▁Фео	-11.5235
этнографтыг	-11.5245
▁111	-11.5248
▁аңнар	-11.5249
Надежда	-11.5253
оңгар	-11.5254
статья	-11.5254
инженер	-11.5254
хаваан	-11.5254
▁общество	-11.5254
экономика	-11.5255
бодалын	-11.5255
Даң	-11.5255
медаль	-11.5257
дүжер	-11.5258
майык	-11.526
▁Народно	-11.526
Книга	-11.5264
▁Абд	-11.5265
сырый	-11.5266
III	-11.5271
удурланыр	-11.5272
караңгы	-11.5277
▁магазин	-11.5278
оранчок	-11.5278
Ашак	-11.5282
ОВА	-11.5284
Ver	-11.5285
Катанов	-11.5286
Хосе	-11.5288
хоорлу	-11.5292
▁хайгаара	-11.5294
тудуп	-11.5297
▁шилчиир	-11.5299
Кажыкты	-11.53
нчыын	-11.5321
▁Конституция	-11.5336
Сылдыстар	-11.5338
эрик	-11.5339
167	-11.534
чурумун	-11.5359
́ль	-11.5368
дугуржур	-11.5372
тывыш	-11.5374
+4	-11.5384
▁фольклорист	-11.5385
1915	-11.5387
Катап	-11.5402
группа	-11.5404
чүүлүн	-11.5406
аэро	-11.5412
Кадыг	-11.5416
керээни	-11.5417
▁правил	-11.5424
ировал	-11.5433
салаалар	-11.5437
Успенка	-11.5442
олитиктиг	-11.5446
Игил	-11.5458
▁Man	-11.5458
Бах	-11.5459
▁төөг	-11.5466
▁информаци	-11.5482
▁Отв	-11.5497
ведения	-11.5501
Şiir	-11.5503
▁тарады	-11.5509
Испан	-11.551
Хүндүткелди	-11.5511
▁карыш	-11.5514
оратор	-11.5515
▁чоор	-11.5518
төгерик	-11.5521
кубок	-11.5527
псих	-11.5532
▁дилээ	-11.5532
▁шыктар	-11.5535
▁государственн	-11.5545
▁клазы	-11.5549
▁сургуул	-11.5552
▁кылдыныглар	-11.5555
▁публицист	-11.5556
▁кичээнгейин	-11.5563
увай	-11.5574
▁эгин	-11.5579
▁классификаци	-11.5583
▁семь	-11.5584
Анатоли	-11.5584
ف	-11.5584
͜	-11.5584
Түрік	-11.5584
ی	-11.5584
▁действи	-11.5584
Звёзд	-11.5584
Шыдыраа	-11.5584
дадагалза	-11.5584
ї	-11.5584
ك	-11.5584
▁(07.03.1960)	-11.5584
▁Будапешт	-11.5584
▁Гребнев	-11.5584
▁Гьяцо	-11.5584
▁Евгеньевна	-11.5584
▁билдинип	-11.5584
▁борьбы	-11.5584
▁дүүшпес	-11.5584
▁интернационал	-11.5584
▁кладбище	-11.5584
▁көжүрүп	-11.5584
▁медсестра	-11.5584
▁приступил	-11.5584
▁сайгарлыкчы	-11.5584
▁солчуушкуну	-11.5584
▁сотрудничеств	-11.5584
▁сөөртүп	-11.5584
▁ферментилер	-11.5584
▁эстафета	-11.5584
Гражданск	-11.5584
австрали	-11.5584
و	-11.5584
▁Румыния	-11.5584
▁кыпсыр	-11.5584
▁наречие	-11.5584
▁президиум	-11.5584
▁шаптараазын	-11.5584
▁Чарльз	-11.5584
▁жюри	-11.5584
▁людей	-11.5584
Прасковь	-11.5584
▁хагдын	-11.5584
▁переехал	-11.5584
▁отвагу	-11.5584
▁школу	-11.5584
Экономическ	-11.5584
▁лауреаттары	-11.5584
▁многи	-11.5585
▁молекула	-11.5585
▁ажыдыышкыннар	-11.5585
Узбек	-11.5585
▁грамот	-11.5585
▁дужунда	-11.5585
▁шенеп	-11.5585
Повести	-11.5585
▁Познер	-11.5585
Дмитров	-11.5585
▁сахаджа	-11.5585
Инженер	-11.5585
▁деңнээрге	-11.5585
1941-1945	-11.5585
▁четпейн	-11.5585
Күчү	-11.5585
Куржаг	-11.5585
▁легенда	-11.5585
▁деткиир	-11.5586
▁дагылга	-11.5586
▁китайск	-11.5586
▁оруннары	-11.5586
Механик	-11.5586
бухгал	-11.5586
▁Чернигов	-11.5586
▁укталып	-11.5586
▁аппары	-11.5586
▁хүлээттинген	-11.5586
Победа	-11.5586
▁сылдызы	-11.5586
▁бербээн	-11.5586
Перевод	-11.5586
Чадаган	-11.5586
▁делгемнерин	-11.5586
▁теоретиктиг	-11.5586
Тверь	-11.5586
Өртемчей	-11.5587
ound	-11.5587
▁ажылдавышаан	-11.5587
▁хереглеттинер	-11.5587
▁(1951)	-11.5587
▁Мижит	-11.5588
▁Успенский	-11.5588
Hayat	-11.5588
▁өргүп	-11.5588
▁профиль	-11.5588
▁Моррис	-11.5588
▁дыңналып	-11.5588
чодураа	-11.5588
Серенот	-11.5588
▁жить	-11.5589
▁путь	-11.5589
▁шыдажып	-11.5589
Өпей	-11.559
▁каттырар	-11.559
▁багана	-11.559
Удуртукчу	-11.559
▁партий	-11.559
▁сонуургалдыг	-11.559
▁эстрад	-11.559
Сагаан	-11.559
▁депшилге	-11.5591
▁үскен	-11.5592
▁холбаалыг	-11.5592
ширби	-11.5592
▁бөлгүмү	-11.5593
▁кижизидип	-11.5593
дыштанып	-11.5593
▁көрүңерем	-11.5594
Сүлде	-11.5594
▁археологии	-11.5595
▁төрүп	-11.5595
▁тожу	-11.5596
▁чаваа	-11.5596
▁калчаа	-11.5596
▁ивижи	-11.5597
▁чурттун	-11.5598
▁өңнүктери	-11.5599
▁Борисович	-11.5599
▁чизе	-11.5599
▁быжыглаан	-11.5599
▁көргүз	-11.56
▁Орлан	-11.5601
▁1889	-11.5602
▁берипкен	-11.5603
▁консул	-11.5603
көгүд	-11.5604
▁Соян	-11.5604
▁туман	-11.5607
посвящён	-11.5608
лештир	-11.5609
▁үлээр	-11.561
▁кештиң	-11.5611
▁ышкынар	-11.5612
Сукпак	-11.5612
▁сеги	-11.5612
▁сестразы	-11.5613
▁манаар	-11.5614
Салгал	-11.5615
▁тёт	-11.5618
артынчы	-11.5619
Астана	-11.562
утпас	-11.5624
▁1500	-11.5625
▁сагыштыг	-11.5626
▁фактор	-11.5629
▁Всероссийско	-11.563
▁чайлаар	-11.5631
▁села	-11.5632
▁дипломун	-11.5637
Тудуг	-11.5639
хоржок	-11.564
сиология	-11.564
енец	-11.5644
дзор	-11.5646
партия	-11.5648
▁наград	-11.5649
▁культ	-11.5649
▁Үг	-11.5653
▁шилчидер	-11.5655
дөңгүр	-11.5664
хаван	-11.5666
▁быжырар	-11.5669
▁Джер	-11.5671
▁научны	-11.5675
▁репрессия	-11.5679
эмдик	-11.5685
▁музыкально	-11.5689
думаа	-11.5695
▁системалар	-11.5701
хуусаа	-11.5703
▁Московско	-11.5704
▁ферме	-11.5722
▁аскы	-11.5723
Петр	-11.5725
өглүг	-11.5725
▁чемпионадында	-11.5725
▁Yu	-11.5728
▁үүлгедиглер	-11.5732
салгал	-11.5736
ентизи	-11.5736
▁кадр	-11.5736
▁төвүттер	-11.5741
▁ажыттына	-11.5745
эргижир	-11.5745
көңгүс	-11.5751
ылгаар	-11.5752
Светлана	-11.5753
Ыдыктыг	-11.5753
өттүр	-11.5753
херим	-11.5754
немелде	-11.5754
Үстүү	-11.5754
хөрек	-11.5754
көскү	-11.5754
дүжүп	-11.5754
Тамара	-11.5754
Красноярск	-11.5755
Ибн	-11.5755
колдуунда	-11.5755
январь	-11.5755
ногаан	-11.5759
музей	-11.5759
металлургия	-11.576
айыылдыг	-11.576
иштики	-11.5765
Баян	-11.5771
ветераны	-11.5774
мөге	-11.5775
Ноян	-11.5777
▁шашка	-11.5781
ическом	-11.5783
▁тулчуушкуннар	-11.5789
согар	-11.5796
өөнге	-11.58
өштүг	-11.5806
▁Само	-11.5812
кыдыра	-11.5815
оочур	-11.582
Роль	-11.5824
▁шиизин	-11.5831
шпээн	-11.5852
▁халдаашкыннар	-11.5858
▁хүлү	-11.5873
▁техниказы	-11.5873
чазык	-11.5873
бодалдар	-11.5874
pos	-11.5888
196	-11.5894
inci	-11.5896
Камгала	-11.5907
▁хөгжүмчүлер	-11.5911
▁сеткилдер	-11.5914
ттүнген	-11.5915
ЗЫ	-11.5918
ованный	-11.592
дөзү	-11.5926
▁оралакчы	-11.594
звезда	-11.594
▁гимн	-11.5942
▁Kar	-11.5959
▁бижиктеринде	-11.5965
ates	-11.5992
Нидерланды	-11.6
ынчап	-11.6002
▁эдилел	-11.6003
▁бөлүүнде	-11.6006
▁источникам	-11.6007
билбези	-11.6007
▁тулчуушкуну	-11.6012
▁библ	-11.6023
▁бүдүрүлгелер	-11.6036
бурган	-11.6038
▁четтиргенин	-11.6039
▁шүлүглел	-11.604
дөгер	-11.6042
7-0	-11.6044
▁оралдажы	-11.6047
▁саанчы	-11.6071
▁ховузун	-11.6074
бөлгүм	-11.6076
IM	-11.6078
турачы	-11.6081
Алексеев	-11.6084
ђ͜	-11.6084
Υ	-11.6084
Нижний	-11.6084
ُ	-11.6084
▁Чолдак	-11.6084
Cumhuriyet	-11.6084
Cycling	-11.6084
Feature	-11.6084
Kazakistan	-11.6084
Адрианов	-11.6084
Айвазовский	-11.6084
Археология	-11.6084
Вконтакте	-11.6084
Локомотив	-11.6084
Набережная	-11.6084
Путешестви	-11.6084
Төрүттүнген	-11.6084
Шекспир	-11.6084
дүшкүүрлүг	-11.6084
инструмент	-11.6084
үткүүр	-11.6084
▁(08.04.1971)	-11.6084
▁Telegram	-11.6084
▁Wrestling	-11.6084
▁Иосиф	-11.6084
▁Куйбышев	-11.6084
▁Шивалха	-11.6084
▁бабушка	-11.6084
▁метражтыг	-11.6084
▁показателей	-11.6084
▁полусредне	-11.6084
▁продолжа	-11.6084
▁руководител	-11.6084
▁руководство	-11.6084
▁сувурган	-11.6084
▁суперкубогунуң	-11.6084
▁фразеологизм	-11.6084
▁чоргускан	-11.6084
▁чымчадыр	-11.6084
Археологическ	-11.6084
Галерея	-11.6084
промышленн	-11.6084
▁2012/13	-11.6084
▁Стокгольм	-11.6084
▁возраст	-11.6084
▁мемориал	-11.6084
▁основе	-11.6084
▁площади	-11.6084
▁чырыдып	-11.6084
▁чүткүлдүг	-11.6084
▁БАССР	-11.6084
▁Эксмо	-11.6084
▁көзүлген	-11.6084
▁санинструктор	-11.6084
▁хогжу	-11.6084
▁экижидип	-11.6084
биатлон	-11.6084
▁тырыкы	-11.6084
Book	-11.6084
Ээрбек	-11.6084
ознание	-11.6084
▁Арыскан	-11.6084
▁Лхаса	-11.6084
Владислав	-11.6084
▁төнүп	-11.6084
▁Норбу	-11.6084
▁найыралдажы	-11.6084
медереп	-11.6085
▁каттыштырган	-11.6085
▁исполни	-11.6085
▁Носова	-11.6085
Интернационал	-11.6085
▁Монголии	-11.6085
▁ужурашкан	-11.6085
өжегээр	-11.6085
Таблица	-11.6085
▁кадагалап	-11.6085
Ойнакчы	-11.6085
Фразеолог	-11.6085
исследовател	-11.6085
каайлы	-11.6085
▁чогумчалыг	-11.6085
▁ГЭС	-11.6085
▁Нациялар	-11.6085
өлүмнүг	-11.6085
▁Алтая	-11.6085
▁улгаткан	-11.6085
Dön	-11.6085
▁Дмитриевна	-11.6085
▁технологий	-11.6085
▁рационал	-11.6085
Империя	-11.6085
▁Самыя	-11.6085
▁бызаанчы	-11.6085
▁тарымал	-11.6085
▁Life	-11.6085
▁тѳлепти	-11.6085
смотр	-11.6085
▁салгакчылар	-11.6085
ледстви	-11.6085
▁сигнал	-11.6085
Последни	-11.6085
▁өөрениир	-11.6085
▁постоянно	-11.6085
Химия	-11.6085
даараныр	-11.6085
Заслуженн	-11.6086
Единогласн	-11.6086
▁дозуп	-11.6086
▁когда	-11.6086
▁корпус	-11.6086
Свято	-11.6086
▁власти	-11.6086
▁экономики	-11.6086
▁илерээн	-11.6086
▁Потапов	-11.6086
▁Night	-11.6086
▁парлаттынып	-11.6086
▁сеткүүлге	-11.6086
▁Бегзи	-11.6086
макталдары	-11.6086
▁пласт	-11.6086
▁уштуп	-11.6086
Киржикчи	-11.6086
▁типография	-11.6087
Сылдысчыгаш	-11.6087
▁статистики	-11.6087
▁назначен	-11.6087
киирилде	-11.6087
▁дузалашкан	-11.6087
▁указатель	-11.6087
▁спортивно	-11.6087
▁соңгаан	-11.6088
▁(1938)	-11.6088
▁чуртувус	-11.6088
▁песни	-11.6088
▁Көжээ	-11.6088
▁чажырып	-11.6088
▁Остров	-11.6089
▁болдуруп	-11.6089
▁Антоновна	-11.6089
▁штаб	-11.6089
▁особенности	-11.6089
▁офицерлер	-11.6089
▁здравоохранения	-11.6089
▁санаттынган	-11.6089
Шушенск	-11.6089
▁дивейн	-11.609
▁аргыыр	-11.609
▁айтыкчы	-11.609
▁агарткан	-11.609
▁саап	-11.609
▁илереттинер	-11.6091
▁Саган	-11.6091
▁техники	-11.6092
▁играх	-11.6092
ology	-11.6093
вшая	-11.6093
чырыдар	-11.6093
▁албайн	-11.6094
▁үлүүн	-11.6094
▁ооргазынга	-11.6094
▁pro	-11.6095
Христиан	-11.6095
▁эттээр	-11.6096
▁чурталга	-11.6098
▁песен	-11.6098
▁харыылаан	-11.6099
хоозура	-11.6099
▁өгленир	-11.6099
▁өңнүү	-11.61
▁Чазактың	-11.61
▁Даля	-11.61
Соок	-11.61
▁көргүс	-11.6101
дамырак	-11.6101
▁учебно	-11.6101
▁прокат	-11.6103
▁солуннарынга	-11.6103
Термин	-11.6104
Круг	-11.6104
▁чуртаан	-11.6104
link	-11.6104
▁ырлаан	-11.6105
▁дивес	-11.6106
▁баглап	-11.6106
▁часть	-11.6107
▁оттуп	-11.6107
▁кыргыз	-11.6107
Өзү	-11.6108
▁статистиказы	-11.6108
▁алыскан	-11.6108
ОГО	-11.6109
▁каткы	-11.6109
кырыш	-11.611
▁электронно	-11.611
▁запис	-11.611
▁3-4	-11.6111
күчүлел	-11.6111
Магритт	-11.6113
▁чарлап	-11.6114
▁Уругвай	-11.6116
▁тигер	-11.6116
▁сайзыралынга	-11.612
▁дней	-11.6121
▁каскан	-11.6124
мках	-11.6125
чарыгда	-11.6126
▁халва	-11.6126
Элээди	-11.613
Live	-11.6131
Gül	-11.6134
▁баглаар	-11.6137
коммунизм	-11.6141
▁спортчузу	-11.6142
▁кижизидилгези	-11.6142
Газет	-11.6145
күскү	-11.6156
▁шапкан	-11.6157
хөреңгизи	-11.6159
библиограф	-11.6159
байкал	-11.6159
тюркски	-11.616
▁семья	-11.6167
▁үзелдер	-11.6168
Национальн	-11.6175
▁өргүүр	-11.6176
▁манчы	-11.6177
Ana	-11.6183
▁байырлалды	-11.6184
▁байырлалын	-11.6187
aga	-11.6188
Стро	-11.6191
▁тиилекчилери	-11.6192
▁выбор	-11.6193
▁газтар	-11.6198
▁просто	-11.6199
▁хоорайларын	-11.6199
Чараш	-11.6202
▁Степн	-11.6202
▁турупкан	-11.6211
Уругнуң	-11.6212
Кыргыз	-11.6212
▁настояще	-11.6216
Love	-11.6216
▁личны	-11.6223
▁чүдүүр	-11.6227
▁Пес	-11.6232
Герман	-11.6235
совм	-11.6239
Каза	-11.625
que	-11.6255
▁үстүү	-11.6256
▁Дания	-11.6266
▁чугала	-11.6269
▁спортсменнер	-11.627
▁клеткалар	-11.6277
температура	-11.6277
корабль	-11.6278
Чогум	-11.6279
административтиг	-11.6281
чүгле	-11.6282
дүрүмнү	-11.6285
төп	-11.6286
▁технологиялар	-11.6293
▁Pri	-11.6295
Томск	-11.6297
▁кожалары	-11.6309
кыдыы	-11.6312
▁общественно	-11.6315
офф	-11.6318
▁эртинези	-11.6318
дээди	-11.6325
Васильева	-11.6329
хову	-11.6336
ltı	-11.634
▁үжүктү	-11.6342
▁холунда	-11.6346
Алгы	-11.6353
Стол	-11.6356
ирующ	-11.6357
▁буттарын	-11.6372
▁фонетик	-11.6372
фельд	-11.6376
зүредир	-11.6378
▁коду	-11.6382
▁угланыышкыннар	-11.6383
▁дивизиязы	-11.6392
▁хонуктар	-11.6393
авления	-11.641
2022	-11.6412
Организ	-11.6415
▁байысаа	-11.6419
▁Bel	-11.6423
▁чтоб	-11.6424
чемеле	-11.6427
▁мастерскаязын	-11.6429
▁отечественно	-11.6433
антылар	-11.6435
аалдың	-11.6442
▁калб	-11.6453
техник	-11.6474
оржу	-11.6478
▁идиктер	-11.6487
his	-11.6497
▁колледжин	-11.6512
1975);	-11.6514
▁посвящ	-11.6526
lav	-11.6526
▁эжеле	-11.6531
авария	-11.6533
▁стать	-11.6536
▁хаалга	-11.6538
(4)	-11.6545
эдип	-11.6557
спорттуң	-11.6565
улдуң	-11.6572
▁кудуруу	-11.6573
▁үндүрүлге	-11.6575
▁Edi	-11.6581
Куш	-11.6582
▁кадакты	-11.6591
▁чоргузуп	-11.6593
▁Яковлев	-11.6598
▁кежигүүн	-11.6599
көрүкчү	-11.6601
▁делег	-11.6606
▁Христ	-11.6608
▁Geo	-11.6608
▁эккел	-11.6609
onia	-11.661
Британ	-11.6611
▁художеств	-11.6611
▁мактал	-11.6611
¬	-11.6611
▁дилиндек	-11.6611
▁кичээңгей	-11.6611
▁мээрең	-11.6611
ι	-11.6611
Ассоциаци	-11.6611
Бундеслига	-11.6611
Родилась	-11.6611
Чечектелири	-11.6611
Широбоков	-11.6611
дөжек	-11.6611
оваарымчалыг	-11.6611
хромосом	-11.6611
ق	-11.6611
‘	-11.6611
▁Asymptotic	-11.6611
▁Research	-11.6611
▁solution	-11.6611
▁Дружбы	-11.6611
▁КСИИМК	-11.6611
▁Организациязы	-11.6611
▁Пальмбах	-11.6611
▁Петроград	-11.6611
▁Пржевальский	-11.6611
▁Стерлитамак	-11.6611
▁Тхүптен	-11.6611
▁Шмидт	-11.6611
▁болзуңза	-11.6611
▁древних	-11.6611
▁дужааган	-11.6611
▁дѳстери	-11.6611
▁канчалдыр	-11.6611
▁оптимально	-11.6611
▁пенсионер	-11.6611
▁поэзия	-11.6611
▁террорист	-11.6611
▁угаазылал	-11.6611
▁укреплени	-11.6611
▁федерации	-11.6611
▁хамааржыыр	-11.6611
▁цивилизаци	-11.6611
▁эккеп	-11.6611
▁элчиген	-11.6611
▁Пакистан	-11.6611
▁использу	-11.6611
▁различны	-11.6611
▁телескоп	-11.6611
▁фосфор	-11.6611
Хувискаал	-11.6611
▁Молдав	-11.6611
▁возможно	-11.6611
▁хонганда	-11.6611
Лебедев	-11.6611
Шинчилел	-11.6611
▁итогам	-11.6611
▁молдурга	-11.6611
▁реакция	-11.6611
▁Пекинге	-11.6611
▁антрополог	-11.6611
▁ресурс	-11.6611
Виноград	-11.6611
▁реклама	-11.6611
▁сайгарар	-11.6611
бышаан	-11.6611
▁[2]	-11.6611
▁передовик	-11.6611
күгүр	-11.6611
▁терең	-11.6611
▁исследователь	-11.6611
▁Григорьевна	-11.6611
▁Настя	-11.6611
▁Ксения	-11.6611
Кежээ	-11.6611
▁адаккы	-11.6611
▁нарыыда	-11.6611
▁кошкадыр	-11.6611
лендирер	-11.6611
Газали	-11.6611
▁Учебн	-11.6611
▁соктап	-11.6611
▁хүртүзү	-11.6611
▁баазазы	-11.6611
тарамык	-11.6611
▁боданып	-11.6612
чудурук	-11.6612
▁Партия	-11.6612
▁(21.0	-11.6612
Лацио	-11.6612
Kuş	-11.6612
▁чалбарыыр	-11.6612
▁Журналистер	-11.6612
Наташа	-11.6612
Утказы	-11.6612
▁Хоойлузу	-11.6612
▁оозун	-11.6612
Лариса	-11.6613
сууржуң	-11.6613
▁гонка	-11.6613
Опыт	-11.6613
▁чарыштырар	-11.6613
▁дүргект	-11.6613
▁үзүлген	-11.6613
Черкес	-11.6613
▁Ефимович	-11.6613
▁Андреевич	-11.6613
▁Гомес	-11.6613
восточн	-11.6613
Юридикти	-11.6614
▁деревн	-11.6614
▁творческ	-11.6614
▁турлаг	-11.6614
▁Бузур	-11.6614
Дөргүн	-11.6614
▁арылдыр	-11.6614
▁военно	-11.6614
▁знания	-11.6615
▁шутку	-11.6615
▁die	-11.6615
▁Степановна	-11.6615
Федотов	-11.6615
▁сөөктүг	-11.6616
▁киностудия	-11.6616
▁(1950)	-11.6617
▁записки	-11.6617
▁соңгудуп	-11.6617
▁2,5	-11.6617
▁финализи	-11.6618
КНО	-11.6618
▁патент	-11.6618
Конституци	-11.6618
▁чугаалашкан	-11.6618
▁перепис	-11.6619
▁(1946)	-11.6619
▁схема	-11.6619
▁Барыс	-11.6619
▁чадалары	-11.6619
▁Министерствозу	-11.6619
▁медээлел	-11.662
▁хулээ	-11.6621
▁алыкса	-11.6622
▁төөгүжү	-11.6622
iyet	-11.6622
▁болдурган	-11.6622
▁Лилия	-11.6622
▁тракт	-11.6623
▁философии	-11.6623
▁салбак	-11.6623
элезинниг	-11.6623
▁дыңнаткан	-11.6624
▁Хораа	-11.6624
Берге	-11.6624
тудуштурар	-11.6625
Подвиг	-11.6625
Война	-11.6625
Министр	-11.6626
▁бүдүштү	-11.6628
▁эмнээринге	-11.6628
суугу	-11.6629
▁редакторлап	-11.6629
▁даргалап	-11.663
▁демги	-11.663
уламчыла	-11.6631
▁болгар	-11.6632
Игнат	-11.6633
маргыш	-11.6633
▁булуңнарын	-11.6634
өрээлди	-11.6634
Дыбо	-11.6638
▁можузу	-11.6643
▁испр	-11.6646
▁Москв	-11.6647
өөрүшкүлүг	-11.6648
мөөңнээр	-11.6648
▁айтырган	-11.6649
▁начало	-11.6657
Песн	-11.6657
▁Uni	-11.6664
Бедии	-11.6665
▁марказы	-11.6671
▁туктар	-11.6673
Путь	-11.6677
Söz	-11.668
темалыг	-11.669
▁шынаазы	-11.669
▁капиталы	-11.6695
thod	-11.6696
XVII	-11.6698
сураа	-11.6703
отношения	-11.6703
Оттук	-11.6706
рүмелинден	-11.6721
деңнээр	-11.6735
▁хоойлуларын	-11.674
пуск	-11.674
кээргээр	-11.6741
долганыр	-11.6741
▁камгалалын	-11.6746
▁архивинде	-11.6748
ереглеттинер	-11.6748
хорадаар	-11.6767
▁кичээлдерин	-11.6769
▁грант	-11.6785
рынок	-11.679
Россий	-11.6791
турецки	-11.6796
1-3	-11.6809
чаактар	-11.6817
апрель	-11.6818
▁волос	-11.6822
▁сүлдези	-11.6822
▁дээрбектер	-11.6822
Максим	-11.6832
Софья	-11.6834
Зинаида	-11.6834
Елизавета	-11.6835
Горький	-11.6835
үүрмек	-11.6835
тоожу	-11.6837
ısı	-11.6837
педагогика	-11.6837
Андрей	-11.6837
Евтюхова	-11.6839
казах	-11.6839
чылдарда	-11.684
▁Bri	-11.684
▁бадыткал	-11.6844
арышкылыы	-11.6851
үнелиг	-11.6852
июль	-11.6858
кылыр	-11.686
▁бөлүктү	-11.6871
филолог	-11.6877
пашка	-11.6892
▁сельскохозяйственно	-11.6893
▁киржикчи	-11.6893
Индия	-11.6894
Центральн	-11.6905
Янзы	-11.6908
▁очулгалары	-11.691
беңер	-11.6912
▁бір	-11.6929
▁Федеральн	-11.693
▁мастерлери	-11.693
▁Веч	-11.6933
Киев	-11.6939
хевис	-11.6948
Ku	-11.6952
чылгы	-11.6952
▁бүрге	-11.6953
▁улгаттыр	-11.6954
▁клетка	-11.6957
рофилактика	-11.6961
▁Стефан	-11.6972
1874	-11.6985
▁рекордту	-11.6996
▁эгелер	-11.7031
▁номчукчу	-11.7032
мдыызында	-11.7037
Эмили	-11.7044
Куду	-11.7062
демисежир	-11.7082
▁дүже	-11.7084
▁спектакл	-11.7088
▁свое	-11.7102
Аңчы	-11.7119
▁сайзыраткан	-11.7123
▁Отечеств	-11.7135
▁шыңган	-11.7136
▁саазыннар	-11.7137
▁методиказы	-11.7141
▁Төвү	-11.7141
▁сестра	-11.715
Хады	-11.715
учеб	-11.7158
чаартылга	-11.7159
▁ассистент	-11.7165
▁ассоциаци	-11.7165
психиатр	-11.7166
ikipedia	-11.7166
эпидемиолог	-11.7166
Асимптоти	-11.7166
Анджелес	-11.7166
ع	-11.7166
ي	-11.7166
Rigoberta	-11.7166
press	-11.7166
small	-11.7166
ƣ	-11.7166
Гржимайло	-11.7166
Кайгамчык	-11.7166
Микеланджело	-11.7166
Примечания	-11.7166
Рафаэль	-11.7166
Рецензия	-11.7166
Скороходова	-11.7166
Чиңмит	-11.7166
дүргедээшкин	-11.7166
түрегдел	-11.7166
филармония	-11.7166
хөрзүннү	-11.7166
▁5-203-00536-2	-11.7166
▁Music	-11.7166
▁Oxford	-11.7166
▁Records	-11.7166
▁Studies	-11.7166
▁Георгиевна	-11.7166
▁Лауреады	-11.7166
▁Нарышкин	-11.7166
▁Фрунзе	-11.7166
▁Хадаханэ	-11.7166
▁библиотеке	-11.7166
▁губернии	-11.7166
▁исполнени	-11.7166
▁киноактёр	-11.7166
▁мексикан	-11.7166
▁млрд	-11.7166
▁оралдашкан	-11.7166
▁основания	-11.7166
▁революции	-11.7166
▁сотрудник	-11.7166
▁условиях	-11.7166
▁хүлүмзүрүг	-11.7166
▁чардынган	-11.7166
▁чижелээрге	-11.7166
▁ышкажыл	-11.7166
▁эвээжээн	-11.7166
Авиценна	-11.7166
Индонезия	-11.7166
ТГТШИ	-11.7166
Тимофеев	-11.7166
күүсекчи	-11.7166
ག	-11.7166
▁2008/09	-11.7166
▁Всесоюз	-11.7166
▁Дыртык	-11.7166
▁Смирнова	-11.7166
▁Чебоксар	-11.7166
▁животноводстве	-11.7166
▁заведующ	-11.7166
▁рабочи	-11.7166
▁сердце	-11.7166
▁телевидения	-11.7166
▁удостоен	-11.7166
▁чүгүрер	-11.7166
oloji	-11.7166
▁Григорьевич	-11.7166
▁таңмазы	-11.7166
▁ыйнаан	-11.7166
▁балыглаткан	-11.7166
▁бүдүрүкчү	-11.7166
▁ижиртир	-11.7166
▁дагдыныкчы	-11.7166
▁санаттынар	-11.7166
чиигедир	-11.7166
▁итпек	-11.7166
эмгежок	-11.7166
[...]
